<pad>	0
<unk>	0
<s>	0
</s>	0
in	-0
on	-1
ti	-2
tion	-3
ec	-4
ection	-5
jection	-6
▁in	-7
um	-8
▁injection	-9
ri	-10
de	-11
ro	-12
ra	-13
lo	-14
ch	-15
us	-16
ium	-17
In	-18
ride	-19
chlo	-20
chloride	-21
en	-22
ic	-23
od	-24
an	-25
odium	-26
rop	-27
tra	-28
▁chloride	-29
ump	-30
Mic	-31
Microp	-32
Micropump	-33
ta	-34
ous	-35
▁d	-36
Intra	-37
ven	-38
rip	-39
▁drip	-40
venous	-41
Intravenous	-42
sodium	-43
le	-44
ed	-45
al	-46
eed	-47
te	-48
▁p	-49
▁f	-50
▁n	-51
nan	-52
or	-53
eedle	-54
▁needle	-55
▁1	-56
ml	-57
▁In	-58
ine	-59
se	-60
tic	-61
om	-62
Sta	-63
ush	-64
▁10	-65
▁push	-66
Static	-67
▁Injection	-68
▁*	-69
si	-70
ar	-71
▁s	-72
ul	-73
lu	-74
dro	-75
ydro	-76
▁5	-77
as	-78
ydrochloride	-79
▁sodium	-80
ral	-81
▁for	-82
ate	-83
Sodium	-84
ation	-85
ing	-86
▁2	-87
id	-88
▁h	-89
sium	-90
th	-91
ol	-92
er	-93
▁c	-94
ble	-95
Po	-96
▁(	-97
luc	-98
0.	-99
▁0.	-100
tas	-101
▁/	-102
tassium	-103
Potassium	-104
▁[	-105
blet	-106
▁H	-107
mg	-108
es	-109
ep	-110
il	-111
blets	-112
Oral	-113
▁ta	-114
asal	-115
em	-116
Nasal	-117
▁feed	-118
▁feeding	-119
ph	-120
ose	-121
▁hydrochloride	-122
po	-123
un	-124
la	-125
lucose	-126
▁b	-127
rin	-128
▁tablets	-129
▁g	-130
of	-131
sion	-132
▁0.9	-133
▁0.9%	-134
ita	-135
ac	-136
Glucose	-137
und	-138
uman	-139
ompo	-140
ompound	-141
mi	-142
iz	-143
hal	-144
▁Hydrochloride	-145
one	-146
re	-147
Compound	-148
halation	-149
tom	-150
▁an	-151
ut	-152
os	-153
me	-154
▁C	-155
00	-156
▁inhalation	-157
can	-158
rinse	-159
▁scan	-160
▁ch	-161
it	-162
trate	-163
lain	-164
ion	-165
ex	-166
▁100	-167
side	-168
ization	-169
est	-170
at	-171
the	-172
▁plain	-173
min	-174
op	-175
onate	-176
▁a	-177
▁S	-178
mide	-179
oc	-180
Atom	-181
dom	-182
edside	-183
Atomization	-184
▁em	-185
su	-186
▁emul	-187
Bedside	-188
▁emulsion	-189
50	-190
ulin	-191
uro	-192
rine	-193
tam	-194
sulin	-195
For	-196
zo	-197
yl	-198
ent	-199
ne	-200
▁and	-201
nal	-202
▁chest	-203
epine	-204
phrine	-205
epinephrine	-206
rtrate	-207
ef	-208
yc	-209
bdom	-210
rac	-211
Nor	-212
Norepinephrine	-213
am	-214
CT	-215
▁Sodium	-216
alc	-217
▁500	-218
▁Inj	-219
ECT	-220
ECTion	-221
▁InjECTion	-222
alcium	-223
ter	-224
semide	-225
▁m	-226
ension	-227
itamin	-228
▁sus	-229
RT	-230
is	-231
RRT	-232
▁CRRT	-233
▁250	-234
ple	-235
ag	-236
itartrate	-237
▁20	-238
yn	-239
zole	-240
ia	-241
ip	-242
olu	-243
Human	-244
arin	-245
▁T	-246
utri	-247
utrition	-248
▁bitartrate	-249
▁|	-250
Furo	-251
ane	-252
ios	-253
▁l	-254
teral	-255
▁nutrition	-256
Furosemide	-257
▁Insulin	-258
iosyn	-259
iosynthe	-260
▁Human	-261
Biosynthe	-262
Biosynthetic	-263
aneous	-264
utaneous	-265
bc	-266
bcutaneous	-267
Calcium	-268
subcutaneous	-269
▁4	-270
▁of	-271
olution	-272
bu	-273
ulf	-274
▁gluc	-275
▁gluconate	-276
razole	-277
▁ca	-278
▁abdom	-279
tin	-280
per	-281
lyc	-282
ur	-283
ofol	-284
ropofol	-285
Me	-286
umin	-287
En	-288
▁10%	-289
top	-290
teri	-291
pi	-292
▁al	-293
idine	-294
bumin	-295
▁albumin	-296
Propofol	-297
ver	-298
Ac	-299
der	-300
▁susp	-301
▁suspension	-302
▁med	-303
ong	-304
Dex	-305
phate	-306
bro	-307
Cef	-308
lin	-309
uc	-310
enal	-311
if	-312
ulfate	-313
lol	-314
ad	-315
▁fil	-316
▁film	-317
ron	-318
▁can	-319
▁canal	-320
up	-321
ase	-322
Anal	-323
aine	-324
▁Ta	-325
pid	-326
▁Tablets	-327
rh	-328
anc	-329
▁se	-330
Ch	-331
renal	-332
art	-333
sia	-334
ys	-335
▁abdomen	-336
▁en	-337
idoc	-338
idocaine	-339
Lidocaine	-340
ai	-341
ard	-342
erin	-343
Li	-344
Vitamin	-345
ox	-346
lycerin	-347
ity	-348
esthe	-349
esthesia	-350
▁anesthesia	-351
loc	-352
rum	-353
▁cav	-354
▁fat	-355
▁serum	-356
▁Potassium	-357
▁B	-358
bac	-359
arb	-360
eparin	-361
ular	-362
▁M	-363
▁cavity	-364
▁sulfate	-365
mo	-366
ide	-367
ain	-368
entan	-369
ary	-370
oft	-371
local	-372
Es	-373
xol	-374
▁50	-375
bactam	-376
Enteral	-377
broxol	-378
ura	-379
meth	-380
arbonate	-381
cular	-382
pidil	-383
urapidil	-384
soft	-385
ternal	-386
tu	-387
tes	-388
icarbonate	-389
az	-390
inal	-391
Am	-392
▁chain	-393
▁bicarbonate	-394
▁long	-395
osphate	-396
tamine	-397
▁re	-398
og	-399
▁(1	-400
drenal	-401
▁3	-402
▁5%	-403
agne	-404
agnesium	-405
ap	-406
antop	-407
antoprazole	-408
tatin	-409
onary	-410
ead	-411
Heparin	-412
:1	-413
:1)	-414
ancre	-415
lad	-416
ladder	-417
eb	-418
mus	-419
cin	-420
ural	-421
▁Solution	-422
entanil	-423
et	-424
all	-425
ment	-426
▁pancre	-427
external	-428
muscular	-429
tor	-430
Intramuscular	-431
mede	-432
Dexmede	-433
tomidine	-434
Dexmedetomidine	-435
usion	-436
ardi	-437
Head	-438
Adrenal	-439
ney	-440
idney	-441
▁0.5	-442
ipine	-443
Adrenaline	-444
Ambroxol	-445
▁v	-446
ib	-447
▁r	-448
▁k	-449
▁medium	-450
ou	-451
▁inf	-452
▁ml	-453
spi	-454
urg	-455
ime	-456
hosphate	-457
▁D	-458
bladder	-459
allbladder	-460
molol	-461
Esmolol	-462
yper	-463
Magnesium	-464
astatin	-465
Liver	-466
▁gallbladder	-467
arone	-468
ang	-469
▁di	-470
miod	-471
miodarone	-472
pleen	-473
▁spleen	-474
▁ac	-475
orac	-476
oracic	-477
▁pancreas	-478
arg	-479
▁Sul	-480
▁400	-481
itrate	-482
illin	-483
ulm	-484
Chest	-485
olam	-486
ll	-487
lease	-488
pra	-489
▁kidney	-490
red	-491
▁N	-492
ture	-493
sis	-494
Pantoprazole	-495
enem	-496
ery	-497
▁solution	-498
rog	-499
obu	-500
obutamine	-501
ction	-502
argle	-503
thyl	-504
▁release	-505
fusion	-506
tain	-507
pleural	-508
ulmonary	-509
Dobutamine	-510
mino	-511
line	-512
asone	-513
itrog	-514
▁acid	-515
itroglycerin	-516
tained	-517
▁mg	-518
etyl	-519
ypert	-520
methasone	-521
xime	-522
▁ef	-523
▁effusion	-524
emif	-525
▁po	-526
Remif	-527
Remifentanil	-528
pro	-529
▁phosphate	-530
ater	-531
Amiodarone	-532
▁insulin	-533
era	-534
▁w	-535
bdominal	-536
eta	-537
artment	-538
idaz	-539
idazolam	-540
teine	-541
ted	-542
▁sustained	-543
ypertension	-544
human	-545
Nitroglycerin	-546
ding	-547
qu	-548
to	-549
eprazole	-550
ated	-551
orrh	-552
▁co	-553
vitamin	-554
icine	-555
Con	-556
ora	-557
opera	-558
uroxime	-559
cen	-560
urgery	-561
▁glucose	-562
nis	-563
▁th	-564
teric	-565
tri	-566
▁Y	-567
emorrh	-568
olone	-569
rednis	-570
ysteine	-571
posi	-572
etylc	-573
Acetylc	-574
Acetylcysteine	-575
el	-576
emorrhag	-577
nit	-578
ute	-579
rednisolone	-580
Cefuroxime	-581
tory	-582
prednisolone	-583
racture	-584
iaz	-585
zone	-586
Cefopera	-587
Cefoperazone	-588
sule	-589
centra	-590
tone	-591
centrated	-592
las	-593
▁(1:1)	-594
Abdominal	-595
ig	-596
ailu	-597
ailure	-598
▁failure	-599
epartment	-600
Cardi	-601
▁Inhalation	-602
▁sup	-603
II	-604
li	-605
meprazole	-606
▁40	-607
ve	-608
hydro	-609
Kai	-610
▁supposi	-611
Indom	-612
▁fib	-613
▁water	-614
ipe	-615
▁tazo	-616
iperac	-617
iperacillin	-618
▁tazobactam	-619
oated	-620
son	-621
fter	-622
Midazolam	-623
roth	-624
selu	-625
Kaiselu	-626
ye	-627
wer	-628
emorrhage	-629
▁R	-630
▁citrate	-631
▁lo	-632
▁amino	-633
SP	-634
.5	-635
uccin	-636
deson	-637
desonide	-638
rolol	-639
vic	-640
ilin	-641
trop	-642
upper	-643
Su	-644
amethasone	-645
Dexamethasone	-646
▁upper	-647
uccinate	-648
Methyl	-649
ir	-650
ereb	-651
budesonide	-652
Department	-653
▁medicine	-654
▁thoracic	-655
ries	-656
trac	-657
▁lower	-658
hypertension	-659
annit	-660
toprolol	-661
ized	-662
25	-663
▁P	-664
▁Norepinephrine	-665
/2	-666
ication	-667
erebral	-668
▁li	-669
▁inj	-670
▁cri	-671
tical	-672
▁critical	-673
iu	-674
olac	-675
ronolac	-676
ronolactone	-677
▁6	-678
rill	-679
▁hemorrhage	-680
teril	-681
▁infection	-682
lan	-683
tron	-684
Steril	-685
Sterilized	-686
▁25	-687
ont	-688
Concentrated	-689
orph	-690
Aspi	-691
wder	-692
▁t	-693
▁fracture	-694
phy	-695
▁You	-696
bilin	-697
▁Youbilin	-698
inc	-699
espi	-700
espira	-701
espiratory	-702
yp	-703
▁powder	-704
itu	-705
sease	-706
▁disease	-707
ran	-708
▁20%	-709
amine	-710
▁o	-711
tide	-712
luding	-713
coated	-714
including	-715
▁glycerin	-716
▁enteric	-717
Tora	-718
Torasemide	-719
tr	-720
▁calcium	-721
Acute	-722
spironolactone	-723
Th	-724
tis	-725
romide	-726
▁liver	-727
▁30	-728
▁gargle	-729
Lac	-730
metoprolol	-731
Ter	-732
buta	-733
butaline	-734
▁Sulbactam	-735
▁de	-736
Met	-737
elvic	-738
eart	-739
TP	-740
ci	-741
TPF	-742
atic	-743
ev	-744
tories	-745
etacin	-746
Indometacin	-747
▁suppositories	-748
acin	-749
bin	-750
Aspirin	-751
▁tartrate	-752
Piperacillin	-753
▁bromide	-754
▁Succinate	-755
cites	-756
ebul	-757
lopra	-758
▁Nebul	-759
▁Sulphate	-760
Terbutaline	-761
▁Nebulization	-762
tp	-763
▁(8	-764
▁(8:1)	-765
Sh	-766
tpf	-767
▁Li	-768
tropium	-769
▁clas	-770
▁A	-771
oclopra	-772
oclopramide	-773
Metoclopramide	-774
▁cap	-775
▁capsule	-776
Inj	-777
ury	-778
kin	-779
iazide	-780
chloroth	-781
chlorothiazide	-782
▁0.1	-783
▁injury	-784
cy	-785
be	-786
▁tablet	-787
▁heart	-788
ant	-789
▁200	-790
travenous	-791
raphy	-792
ography	-793
ecti	-794
▁surgery	-795
intravenous	-796
▁ar	-797
▁enteral	-798
iography	-799
ascites	-800
▁Ac	-801
vastatin	-802
ric	-803
eng	-804
▁abdominal	-805
▁infar	-806
▁infarction	-807
giography	-808
exidine	-809
enz	-810
neum	-811
rrh	-812
eptide	-813
quid	-814
10	-815
ung	-816
lox	-817
ardipine	-818
ite	-819
unction	-820
Chlo	-821
▁7	-822
▁val	-823
ype	-824
lose	-825
Lactu	-826
Lactulose	-827
▁Liquid	-828
anol	-829
ilrin	-830
ilrinone	-831
Ipra	-832
Ipratropium	-833
Omeprazole	-834
osis	-835
Cardio	-836
Pos	-837
terior	-838
▁angiography	-839
ectio	-840
annitou	-841
Injectio	-842
▁Mannitou	-843
rhexidine	-844
rom	-845
lycy	-846
rrhiz	-847
lycyrrhiz	-848
▁fibrin	-849
But	-850
ort	-851
ry	-852
Nc	-853
Ncardipine	-854
▁peptide	-855
Chlorhexidine	-856
gargle	-857
ix	-858
▁Tar	-859
▁Tartrate	-860
nos	-861
▁pelvic	-862
Te	-863
ituita	-864
Posterior	-865
ros	-866
ituitary	-867
▁pituitary	-868
Thoracic	-869
race	-870
Clo	-871
eth	-872
▁50%	-873
ement	-874
▁e	-875
oxy	-876
ogen	-877
proate	-878
sh	-879
penem	-880
im	-881
ecta	-882
ock	-883
rain	-884
rium	-885
Cis	-886
arf	-887
iabe	-888
neumon	-889
▁Oral	-890
▁15	-891
nosine	-892
reat	-893
racetam	-894
neumonia	-895
oronary	-896
ulfonate	-897
Warf	-898
Warfarin	-899
lycyrrhizin	-900
enzen	-901
esulfonate	-902
atrac	-903
urium	-904
▁benzen	-905
atracurium	-906
Cisatracurium	-907
ulti	-908
▁human	-909
reatine	-910
Butorph	-911
Butorphanol	-912
50%	-913
▁sta	-914
Suf	-915
Sufentanil	-916
ultiple	-917
▁function	-918
ency	-919
ial	-920
▁sh	-921
Fat	-922
ylline	-923
▁0.4	-924
▁Surgery	-925
ambroxol	-926
ith	-927
▁cil	-928
mipenem	-929
▁cilastatin	-930
alig	-931
alignan	-932
oh	-933
truc	-934
fic	-935
pulmonary	-936
pantoprazole	-937
▁u	-938
tro	-939
amic	-940
ma	-941
cle	-942
yla	-943
▁hum	-944
▁valproate	-945
ortic	-946
▁shock	-947
enteral	-948
eri	-949
Kang	-950
ification	-951
Pen	-952
tid	-953
clero	-954
Pulmonary	-955
Hydro	-956
Ator	-957
Atorvastatin	-958
lod	-959
ull	-960
iabetes	-961
wa	-962
ov	-963
fen	-964
kull	-965
idate	-966
Etom	-967
Etomidate	-968
ropenem	-969
Pan	-970
ronic	-971
test	-972
itation	-973
Milrinone	-974
▁com	-975
way	-976
lodipine	-977
irway	-978
Airway	-979
mine	-980
▁humid	-981
▁humidification	-982
ug	-983
Type	-984
ycin	-985
Meta	-986
osap	-987
osapride	-988
icillin	-989
▁respiratory	-990
evof	-991
Multiple	-992
▁brain	-993
▁fibrinogen	-994
▁me	-995
onite	-996
ontmo	-997
ontmorill	-998
ontmorillonite	-999
rox	-1000
Muc	-1001
iable	-1002
olin	-1003
▁reg	-1004
ub	-1005
▁regurg	-1006
▁regurgitation	-1007
PL	-1008
BPL	-1009
short	-1010
▁Ch	-1011
▁II	-1012
tinal	-1013
▁F	-1014
umor	-1015
▁test	-1016
bs	-1017
▁tumor	-1018
▁G	-1019
rometh	-1020
olv	-1021
opamine	-1022
yethyl	-1023
skin	-1024
epam	-1025
▁hydro	-1026
lycyrrhizinate	-1027
▁vitamin	-1028
azole	-1029
▁solu	-1030
▁soluble	-1031
▁125	-1032
▁12500	-1033
▁Heparin	-1034
Mucos	-1035
olvan	-1036
Mucosolvan	-1037
testinal	-1038
rillation	-1039
▁fibrillation	-1040
Esmeprazole	-1041
alon	-1042
Meropenem	-1043
De	-1044
▁is	-1045
▁Nov	-1046
Ulin	-1047
Ulinastatin	-1048
aparin	-1049
hydrox	-1050
ema	-1051
▁creatine	-1052
ylate	-1053
iazepam	-1054
ara	-1055
hanc	-1056
▁deep	-1057
phosphate	-1058
hancement	-1059
▁st	-1060
Palon	-1061
osetron	-1062
oxaparin	-1063
Palonosetron	-1064
etate	-1065
entanyl	-1066
mad	-1067
madol	-1068
plex	-1069
izoc	-1070
izocine	-1071
▁Novolin	-1072
minol	-1073
Metara	-1074
Metaraminol	-1075
▁Bitartrate	-1076
ji	-1077
Dizocine	-1078
apsule	-1079
▁Capsule	-1080
▁I	-1081
zol	-1082
rch	-1083
▁Adrenaline	-1084
▁starch	-1085
setron	-1086
Cer	-1087
Cardiac	-1088
aa	-1089
▁(18	-1090
▁sul	-1091
▁sulbactam	-1092
▁enhancement	-1093
cerebral	-1094
▁complex	-1095
exol	-1096
mia	-1097
itus	-1098
Enoxaparin	-1099
thy	-1100
▁syn	-1101
examic	-1102
upu	-1103
ohexol	-1104
Line	-1105
zolid	-1106
Linezolid	-1107
▁syndro	-1108
▁syndrome	-1109
Shupu	-1110
Penicillin	-1111
▁Capsules	-1112
loxacin	-1113
he	-1114
ecom	-1115
theros	-1116
therosclero	-1117
trial	-1118
esylate	-1119
ionate	-1120
umatic	-1121
▁after	-1122
Bec	-1123
Sub	-1124
Beclo	-1125
▁prop	-1126
▁propionate	-1127
Beclomethasone	-1128
osi	-1129
binant	-1130
ecombinant	-1131
Iohexol	-1132
oxin	-1133
Plain	-1134
▁car	-1135
artan	-1136
4)	-1137
xin	-1138
▁class	-1139
HA	-1140
NY	-1141
NYHA	-1142
Aortic	-1143
▁diabetes	-1144
lok	-1145
▁ly	-1146
Panto	-1147
Pantolok	-1148
ei	-1149
enema	-1150
▁mell	-1151
▁mellitus	-1152
▁isog	-1153
igoxin	-1154
Tran	-1155
use	-1156
tein	-1157
Imipenem	-1158
quan	-1159
▁viable	-1160
edium	-1161
▁0.25	-1162
ilti	-1163
▁Sulfate	-1164
ifed	-1165
ifedipine	-1166
fici	-1167
sif	-1168
tive	-1169
aning	-1170
aningding	-1171
ficiency	-1172
ebro	-1173
Lung	-1174
emia	-1175
Amino	-1176
Tranexamic	-1177
sification	-1178
Digoxin	-1179
-2	-1180
▁renal	-1181
▁Acid	-1182
tery	-1183
▁classification	-1184
6-2	-1185
6-24)	-1186
▁artery	-1187
▁atherosclero	-1188
Pol	-1189
Gas	-1190
After	-1191
/5	-1192
ylamine	-1193
▁Chlo	-1194
▁Chloride	-1195
alignant	-1196
suf	-1197
sufficiency	-1198
▁insufficiency	-1199
▁but	-1200
oid	-1201
Cerebro	-1202
leural	-1203
Is	-1204
sible	-1205
isper	-1206
ispersible	-1207
▁or	-1208
ued	-1209
Contin	-1210
Continued	-1211
tramadol	-1212
▁8	-1213
ot	-1214
enosis	-1215
quanli	-1216
Kangquanli	-1217
▁bedside	-1218
ist	-1219
Recombinant	-1220
rb	-1221
Teg	-1222
acyc	-1223
acyclin	-1224
ula	-1225
rombin	-1226
na	-1227
▁cont	-1228
onazole	-1229
ypo	-1230
Fentanyl	-1231
.0	-1232
▁0.2	-1233
Coronary	-1234
▁En	-1235
▁Acetate	-1236
▁carnosine	-1237
Cerebroside	-1238
atri	-1239
itis	-1240
phylline	-1241
/1	-1242
omycin	-1243
angli	-1244
mal	-1245
▁eye	-1246
▁Yaningding	-1247
Be	-1248
▁Enteric	-1249
ectal	-1250
Aminophylline	-1251
lac	-1252
land	-1253
Atrial	-1254
▁lying	-1255
▁posi	-1256
ob	-1257
stri	-1258
orphine	-1259
Mi	-1260
rane	-1261
▁Dispersible	-1262
dium	-1263
Clostri	-1264
Clostridium	-1265
Amlodipine	-1266
yric	-1267
yricum	-1268
▁butyricum	-1269
oside	-1270
▁atherosclerotic	-1271
Sevof	-1272
lurane	-1273
Sevoflurane	-1274
azine	-1275
anglioside	-1276
▁besylate	-1277
▁pro	-1278
tral	-1279
▁stenosis	-1280
uct	-1281
ish	-1282
▁gland	-1283
▁Citrate	-1284
Mannit	-1285
Mannitol	-1286
apine	-1287
ill	-1288
rops	-1289
Ru	-1290
Mosapride	-1291
oxyepinephrine	-1292
▁proth	-1293
▁prothrombin	-1294
protamine	-1295
Deoxyepinephrine	-1296
atos	-1297
ax	-1298
hydroxylamine	-1299
tomy	-1300
fung	-1301
fungin	-1302
tle	-1303
azem	-1304
iltiazem	-1305
chn	-1306
chnoid	-1307
▁K	-1308
istula	-1309
▁After	-1310
arachnoid	-1311
▁enema	-1312
Tegacyclin	-1313
omatos	-1314
omatostatin	-1315
▁suppository	-1316
eph	-1317
ethacin	-1318
Indomethacin	-1319
Hydrox	-1320
▁110	-1321
▁bot	-1322
▁bottle	-1323
7)	-1324
▁Med	-1325
edrine	-1326
30	-1327
glas	-1328
glass	-1329
zapine	-1330
Montmorillonite	-1331
Cas	-1332
Caspo	-1333
phedrine	-1334
Caspofungin	-1335
Ephedrine	-1336
ass	-1337
Lev	-1338
ardiac	-1339
piperacillin	-1340
Diltiazem	-1341
Diazepam	-1342
methyl	-1343
agul	-1344
isetron	-1345
dan	-1346
als	-1347
▁130	-1348
Hydroxyethyl	-1349
▁glu	-1350
bstruc	-1351
fu	-1352
rel	-1353
Hypo	-1354
▁1.5	-1355
▁Medicine	-1356
tur	-1357
Trop	-1358
Tropisetron	-1359
▁i	-1360
Water	-1361
▁ven	-1362
▁position	-1363
AF	-1364
Belin	-1365
▁Magnesium	-1366
ruct	-1367
ructose	-1368
▁ex	-1369
Glycerin	-1370
▁external	-1371
taz	-1372
▁dilu	-1373
▁dilution	-1374
Kidney	-1375
zh	-1376
Ade	-1377
▁clo	-1378
Se	-1379
eti	-1380
▁150	-1381
cine	-1382
ancomycin	-1383
▁trac	-1384
Internal	-1385
▁use	-1386
ogrel	-1387
pidogrel	-1388
▁mass	-1389
▁Midazolam	-1390
romethazine	-1391
Rin	-1392
Rinse	-1393
▁pneumonia	-1394
With	-1395
loxone	-1396
compound	-1397
%)	-1398
rig	-1399
cef	-1400
lev	-1401
Tra	-1402
Medium	-1403
eal	-1404
ian	-1405
propofol	-1406
reter	-1407
dopamine	-1408
ond	-1409
Pleural	-1410
far	-1411
octe	-1412
farma	-1413
octefarma	-1414
yte	-1415
▁Rectal	-1416
Clopidogrel	-1417
Somatostatin	-1418
▁25%	-1419
▁pulmonary	-1420
ene	-1421
▁Phosphate	-1422
oncentrated	-1423
ual	-1424
1%)	-1425
▁(17)	-1426
▁(11%)	-1427
▁1.0	-1428
▁ax	-1429
Col	-1430
aracetam	-1431
aracetamol	-1432
Chronic	-1433
▁Concentrated	-1434
▁ureter	-1435
▁dis	-1436
along	-1437
amiodarone	-1438
▁le	-1439
Insulin	-1440
alo	-1441
sin	-1442
orax	-1443
acute	-1444
ree	-1445
/50	-1446
ysate	-1447
▁oil	-1448
erb	-1449
ocar	-1450
intestinal	-1451
ardial	-1452
Promethazine	-1453
ling	-1454
Poly	-1455
etil	-1456
ethidine	-1457
Fistula	-1458
Cerebral	-1459
Flu	-1460
oph	-1461
yst	-1462
▁Dalong	-1463
glu	-1464
ipro	-1465
▁protein	-1466
log	-1467
lav	-1468
000	-1469
thorax	-1470
din	-1471
sive	-1472
thi	-1473
thing	-1474
▁clothing	-1475
Subling	-1476
Sublingual	-1477
▁contusion	-1478
imod	-1479
imodipine	-1480
ule	-1481
ale	-1482
Ven	-1483
▁gra	-1484
ab	-1485
ascular	-1486
ili	-1487
adrop	-1488
rotid	-1489
adroparin	-1490
An	-1491
▁axetil	-1492
nitine	-1493
▁obstruc	-1494
ocarnitine	-1495
Pethidine	-1496
▁drops	-1497
lysate	-1498
▁hydrolysate	-1499
Eye	-1500
▁adrenal	-1501
500	-1502
nifedipine	-1503
tathi	-1504
tathione	-1505
Venous	-1506
ranial	-1507
for	-1508
▁cyc	-1509
Ba	-1510
athy	-1511
Nadroparin	-1512
utin	-1513
Trox	-1514
Troxer	-1515
Troxerutin	-1516
elec	-1517
py	-1518
Up	-1519
int	-1520
logy	-1521
Upper	-1522
riv	-1523
rol	-1524
ting	-1525
trol	-1526
ke	-1527
▁her	-1528
pneumonia	-1529
ure	-1530
alsartan	-1531
▁hern	-1532
Flurb	-1533
iprofen	-1534
Flurbiprofen	-1535
Sep	-1536
romb	-1537
ormal	-1538
eto	-1539
▁grade	-1540
onium	-1541
▁ir	-1542
▁irrig	-1543
▁irrigation	-1544
phen	-1545
Morphine	-1546
chol	-1547
Dox	-1548
Intrac	-1549
Intracranial	-1550
trolyte	-1551
orb	-1552
Coated	-1553
cop	-1554
vere	-1555
▁as	-1556
Atrop	-1557
▁bladder	-1558
Atropine	-1559
▁oral	-1560
▁succinate	-1561
qing	-1562
/10	-1563
respiratory	-1564
titis	-1565
ganglioside	-1566
Mon	-1567
▁paracetamol	-1568
▁hem	-1569
oxi	-1570
osorb	-1571
osorbide	-1572
Hypertension	-1573
ysm	-1574
urysm	-1575
2.5	-1576
res	-1577
Ruid	-1578
Shen	-1579
lumin	-1580
jin	-1581
luminal	-1582
Intraluminal	-1583
Ruidai	-1584
▁Bedside	-1585
alv	-1586
▁pac	-1587
Na	-1588
tal	-1589
yoc	-1590
▁cerebral	-1591
ofylline	-1592
Doxofylline	-1593
▁4.5	-1594
iv	-1595
Skull	-1596
kang	-1597
▁Dip	-1598
rivil	-1599
▁Diprivil	-1600
CU	-1601
ICU	-1602
ixing	-1603
abdominal	-1604
Tezh	-1605
Tezhixing	-1606
▁oc	-1607
yme	-1608
partment	-1609
ft	-1610
agglu	-1611
agglutin	-1612
Ne	-1613
▁300	-1614
▁cyst	-1615
anzapine	-1616
erg	-1617
▁vitamins	-1618
▁with	-1619
Malignant	-1620
men	-1621
agglutinin	-1622
▁department	-1623
oagul	-1624
Traumatic	-1625
ules	-1626
▁pancreatic	-1627
tad	-1628
▁diphosphate	-1629
unc	-1630
▁Me	-1631
axone	-1632
▁cyclo	-1633
triaxone	-1634
▁elec	-1635
▁occ	-1636
▁electrolyte	-1637
▁cyclophosphate	-1638
ridin	-1639
Cetyl	-1640
Cetylpy	-1641
ridinium	-1642
Cetylpyridinium	-1643
intment	-1644
valsartan	-1645
amin	-1646
jie	-1647
trointestinal	-1648
oxic	-1649
ks	-1650
uncture	-1651
Adenosine	-1652
ell	-1653
icop	-1654
lanin	-1655
icoplanin	-1656
Mitral	-1657
Isop	-1658
▁hernia	-1659
uced	-1660
Clin	-1661
▁coronary	-1662
▁capsules	-1663
Vancomycin	-1664
uries	-1665
▁injuries	-1666
reduced	-1667
▁glutathione	-1668
obal	-1669
obalamin	-1670
▁Propofol	-1671
Keto	-1672
▁sp	-1673
Fracture	-1674
▁Dopamine	-1675
uang	-1676
▁100000	-1677
▁fac	-1678
romethamine	-1679
ical	-1680
Em	-1681
▁For	-1682
pha	-1683
▁puncture	-1684
ode	-1685
▁tromethamine	-1686
rolac	-1687
Ketorolac	-1688
▁myoc	-1689
sp	-1690
gen	-1691
Severe	-1692
▁tra	-1693
ru	-1694
ouble	-1695
ruit	-1696
ergency	-1697
Sm	-1698
mosapride	-1699
dm	-1700
▁fish	-1701
▁ele	-1702
▁element	-1703
levocarnitine	-1704
ectomy	-1705
Hem	-1706
erine	-1707
bn	-1708
bnormal	-1709
ie	-1710
renaline	-1711
Isoprenaline	-1712
Smecta	-1713
▁packs	-1714
Gasqing	-1715
montmorillonite	-1716
Sac	-1717
▁Department	-1718
odine	-1719
vid	-1720
▁III	-1721
Levosi	-1722
mendan	-1723
Levosimendan	-1724
Povid	-1725
▁iodine	-1726
Povidone	-1727
lood	-1728
▁1000	-1729
Emergency	-1730
atro	-1731
erberine	-1732
oxif	-1733
dhe	-1734
▁cardiac	-1735
▁malignan	-1736
Toxic	-1737
OL	-1738
OLanzapine	-1739
ile	-1740
ospha	-1741
oxifloxacin	-1742
▁adhe	-1743
▁myocardial	-1744
ilo	-1745
Levof	-1746
Levofloxacin	-1747
gl	-1748
emo	-1749
Sacub	-1750
Sacubatro	-1751
tured	-1752
▁potassium	-1753
Por	-1754
ubarachnoid	-1755
Struc	-1756
Structured	-1757
▁Milrinone	-1758
▁skull	-1759
tidyl	-1760
osphatidyl	-1761
Pelvic	-1762
lutamine	-1763
Suc	-1764
Abnormal	-1765
▁malignancy	-1766
rg	-1767
tre	-1768
Inf	-1769
▁im	-1770
tate	-1771
▁antic	-1772
oagulant	-1773
▁anticoagulant	-1774
Ox	-1775
ibrin	-1776
Sepsis	-1777
▁thromb	-1778
atrial	-1779
Polyene	-1780
hosphatidyl	-1781
▁factor	-1782
oma	-1783
▁trace	-1784
▁ane	-1785
ylated	-1786
▁aneurysm	-1787
▁hemagglutinin	-1788
▁L	-1789
aineng	-1790
Hep	-1791
Taineng	-1792
imipenem	-1793
ream	-1794
ya	-1795
acet	-1796
▁pilo	-1797
arotid	-1798
▁piloside	-1799
acetylated	-1800
▁base	-1801
go	-1802
▁flav	-1803
wh	-1804
▁Kit	-1805
▁Seal	-1806
Porcine	-1807
▁Fibrin	-1808
▁Sealant	-1809
treo	-1810
▁blood	-1811
treotide	-1812
glum	-1813
fruit	-1814
glumine	-1815
▁flavor	-1816
econd	-1817
▁peri	-1818
ela	-1819
Bang	-1820
brow	-1821
nake	-1822
white	-1823
▁snake	-1824
▁venom	-1825
Bangting	-1826
▁eyebrow	-1827
tus	-1828
lusion	-1829
ty	-1830
▁diss	-1831
▁occlusion	-1832
As	-1833
choline	-1834
tric	-1835
Lef	-1836
lip	-1837
▁dissection	-1838
erior	-1839
emorrhagic	-1840
Free	-1841
roid	-1842
▁pol	-1843
Wei	-1844
Clino	-1845
KU	-1846
phenamine	-1847
ze	-1848
ried	-1849
Freeze	-1850
▁dried	-1851
▁adhesive	-1852
▁O	-1853
alop	-1854
vascular	-1855
uspid	-1856
che	-1857
sop	-1858
Baili	-1859
emoral	-1860
dos	-1861
kinase	-1862
Subarachnoid	-1863
Al	-1864
Naloxone	-1865
amlodipine	-1866
doscop	-1867
vical	-1868
▁IU	-1869
Wan	-1870
▁80	-1871
econdary	-1872
Fructose	-1873
Berberine	-1874
omeprazole	-1875
▁24	-1876
fate	-1877
Sucral	-1878
Sucralfate	-1879
lic	-1880
ton	-1881
▁valve	-1882
▁Calcium	-1883
ect	-1884
Ceftriaxone	-1885
wen	-1886
▁BM	-1887
Miya	-1888
idime	-1889
tazidime	-1890
Alan	-1891
arox	-1892
Alanyl	-1893
▁Glutamine	-1894
enol	-1895
trem	-1896
Hydroc	-1897
hemorrhage	-1898
fat	-1899
bol	-1900
cha	-1901
ysac	-1902
charide	-1903
ysaccharide	-1904
▁Skull	-1905
mefen	-1906
Neuro	-1907
▁Diazepam	-1908
paz	-1909
pazide	-1910
Spi	-1911
▁extrem	-1912
Nifedipine	-1913
Hyper	-1914
tho	-1915
sema	-1916
▁gas	-1917
physema	-1918
naloxone	-1919
Respiratory	-1920
itrin	-1921
ituitrin	-1922
eba	-1923
Metoprolol	-1924
nimodipine	-1925
rinary	-1926
tation	-1927
ficial	-1928
▁ro	-1929
Moxifloxacin	-1930
DR	-1931
Gastrointestinal	-1932
proteine	-1933
proteinemia	-1934
▁rep	-1935
Ceftazidime	-1936
▁hypertension	-1937
▁medical	-1938
teicoplanin	-1939
Ey	-1940
tures	-1941
▁frac	-1942
▁fractures	-1943
alls	-1944
ration	-1945
othorax	-1946
allstone	-1947
cinepazide	-1948
▁flu	-1949
▁pros	-1950
esp	-1951
Eyed	-1952
Eyedrop	-1953
.5%	-1954
Pulm	-1955
icort	-1956
▁Resp	-1957
enzyme	-1958
Pulmicort	-1959
▁Respules	-1960
Mec	-1961
neumothorax	-1962
Ben	-1963
luconazole	-1964
Renal	-1965
tonitis	-1966
tificial	-1967
Mecobalamin	-1968
uronium	-1969
▁23	-1970
pirin	-1971
▁232.5	-1972
▁Cardiac	-1973
▁replac	-1974
▁replacement	-1975
▁tract	-1976
▁ve	-1977
led	-1978
ril	-1979
▁arteri	-1980
Roc	-1981
▁room	-1982
Rocuronium	-1983
ign	-1984
ming	-1985
▁600	-1986
▁dys	-1987
creatine	-1988
function	-1989
toma	-1990
▁Scan	-1991
jian	-1992
Weijian	-1993
Weijianeng	-1994
ota	-1995
Gallstone	-1996
eck	-1997
▁obstructive	-1998
illus	-1999
▁anemia	-2000
dansetron	-2001
esartan	-2002
huang	-2003
On	-2004
▁trache	-2005
Hypoproteinemia	-2006
umb	-2007
▁dysfunction	-2008
Lefan	-2009
▁8.5%	-2010
Lefanming	-2011
atitis	-2012
▁ortho	-2013
Irb	-2014
Irbesartan	-2015
Sal	-2016
position	-2017
▁coenzyme	-2018
isosorbide	-2019
▁orthoposition	-2020
surg	-2021
surgery	-2022
oxyphenamine	-2023
10%	-2024
hydroxyethyl	-2025
▁peritonitis	-2026
▁Pill	-2027
Di	-2028
larg	-2029
Neurology	-2030
alf	-2031
▁14	-2032
olec	-2033
▁malignant	-2034
▁Asp	-2035
oric	-2036
Colis	-2037
ening	-2038
Colistin	-2039
usk	-2040
▁calf	-2041
kale	-2042
alate	-2043
butam	-2044
butamol	-2045
▁extremity	-2046
otomy	-2047
▁4000	-2048
▁tracheotomy	-2049
kalemia	-2050
otaxime	-2051
Oc	-2052
iuhuang	-2053
Ang	-2054
Ondansetron	-2055
Deba	-2056
ilep	-2057
Angong	-2058
epilep	-2059
Debajin	-2060
▁Niuhuang	-2061
pros	-2062
urokinase	-2063
▁obstruction	-2064
upture	-2065
▁te	-2066
Cola	-2067
ituo	-2068
▁bituo	-2069
rof	-2070
▁oxy	-2071
▁oxygen	-2072
Hemorrhagic	-2073
ss	-2074
Rop	-2075
ivac	-2076
▁iron	-2077
Ropivac	-2078
Ropivacaine	-2079
ital	-2080
umbar	-2081
▁inter	-2082
eh	-2083
▁coated	-2084
ephro	-2085
ronch	-2086
trah	-2087
Aspiration	-2088
▁gran	-2089
Rhe	-2090
▁hydrothorax	-2091
▁chronic	-2092
▁Pulmonary	-2093
iban	-2094
▁cava	-2095
▁trip	-2096
double	-2097
sy	-2098
▁enc	-2099
Benign	-2100
ycl	-2101
Peneh	-2102
rofiban	-2103
Penehycl	-2104
Penehyclidine	-2105
clerosis	-2106
sess	-2107
neuro	-2108
sessment	-2109
neurosurgery	-2110
olon	-2111
▁assessment	-2112
▁V	-2113
▁Meth	-2114
diabetes	-2115
left	-2116
Bosi	-2117
Bosijie	-2118
ricuspid	-2119
Nimodipine	-2120
asi	-2121
tidine	-2122
exose	-2123
ineng	-2124
Monosi	-2125
▁tetrah	-2126
Monosialate	-2127
▁ganglioside	-2128
▁tetrahexose	-2129
Ti	-2130
Wanwen	-2131
Rib	-2132
tatic	-2133
raw	-2134
▁vena	-2135
Salbutamol	-2136
oxiracetam	-2137
▁draw	-2138
▁drawing	-2139
quela	-2140
cos	-2141
ortis	-2142
Cardiovascular	-2143
di	-2144
Deacetylated	-2145
▁hyper	-2146
ortisone	-2147
Hydrocortisone	-2148
Lo	-2149
▁Acute	-2150
cosys	-2151
pen	-2152
oxib	-2153
quelae	-2154
Thy	-2155
ast	-2156
tadil	-2157
prostadil	-2158
ietin	-2159
▁fluid	-2160
Le	-2161
onon	-2162
ononitrate	-2163
oriconazole	-2164
▁ri	-2165
lisu	-2166
Panlisu	-2167
Pituitrin	-2168
eding	-2169
ymo	-2170
alan	-2171
alanyl	-2172
▁glutamine	-2173
▁vein	-2174
rolled	-2175
ka	-2176
▁Lac	-2177
▁bone	-2178
isop	-2179
▁lu	-2180
ess	-2181
rotamine	-2182
ste	-2183
odix	-2184
odixanol	-2185
my	-2186
tryp	-2187
Chymo	-2188
Cilin	-2189
trypsin	-2190
Chymotrypsin	-2191
▁Eye	-2192
ism	-2193
pla	-2194
▁0.8	-2195
▁Neng	-2196
medium	-2197
dum	-2198
dumec	-2199
nat	-2200
erid	-2201
fuxin	-2202
Kangfuxin	-2203
lush	-2204
ht	-2205
ohu	-2206
uohu	-2207
thyroid	-2208
▁16	-2209
Sequelae	-2210
▁phosphatidyl	-2211
Pump	-2212
qui	-2213
quired	-2214
ephalop	-2215
ephalopathy	-2216
▁ointment	-2217
▁HY	-2218
▁Type	-2219
▁HYdro	-2220
▁HYdrochloride	-2221
ink	-2222
/20	-2223
Luohu	-2224
plasia	-2225
Luohuoxi	-2226
▁encephalopathy	-2227
itin	-2228
Estaz	-2229
Hepatic	-2230
Estazolam	-2231
luk	-2232
Monte	-2233
Monteluk	-2234
Tirofiban	-2235
rus	-2236
ng	-2237
protein	-2238
▁coagul	-2239
iff	-2240
ator	-2241
▁nit	-2242
ressin	-2243
roprus	-2244
roprusside	-2245
▁thrombosis	-2246
▁nitroprusside	-2247
tration	-2248
▁ner	-2249
▁intestinal	-2250
Nic	-2251
iasis	-2252
inkgo	-2253
iffuse	-2254
deprotein	-2255
▁controlled	-2256
ofil	-2257
Hemofil	-2258
Urinary	-2259
Hemofiltration	-2260
Polymy	-2261
▁coagulation	-2262
osclerosis	-2263
age	-2264
vir	-2265
Polymyxin	-2266
▁hyperplasia	-2267
vancomycin	-2268
soprazole	-2269
▁be	-2270
▁colon	-2271
Stable	-2272
epilepsy	-2273
625	-2274
Bond	-2275
BondA	-2276
▁0.5625	-2277
▁rel	-2278
Acquired	-2279
▁reliable	-2280
Leve	-2281
Leveti	-2282
Levetiracetam	-2283
ating	-2284
doscopy	-2285
iracetam	-2286
Tricuspid	-2287
uan	-2288
▁prostatic	-2289
▁IV	-2290
▁lung	-2291
Polysaccharide	-2292
▁nerve	-2293
Fatty	-2294
aspirin	-2295
uretic	-2296
▁natri	-2297
▁natriuretic	-2298
▁glarg	-2299
Carotid	-2300
▁glargine	-2301
xing	-2302
▁head	-2303
Tag	-2304
Ademe	-2305
Tagasi	-2306
tionine	-2307
Rheumatic	-2308
Ademetionine	-2309
iodixanol	-2310
▁cholec	-2311
Lei	-2312
Leika	-2313
ateral	-2314
ocy	-2315
Par	-2316
▁Fracture	-2317
▁Ointment	-2318
▁60	-2319
rem	-2320
eric	-2321
▁acetate	-2322
Olan	-2323
Olanzapine	-2324
rose	-2325
eritone	-2326
▁ip	-2327
▁ipra	-2328
▁ipratropium	-2329
rest	-2330
▁arrest	-2331
ld	-2332
and	-2333
▁imp	-2334
▁Aspart	-2335
▁atrial	-2336
Da	-2337
mun	-2338
Inferior	-2339
Tian	-2340
tadine	-2341
▁aortic	-2342
tricular	-2343
Ode	-2344
Odejin	-2345
deproteinization	-2346
acerb	-2347
▁exacerb	-2348
▁exacerbation	-2349
Isosorbide	-2350
Sp	-2351
Status	-2352
Octreotide	-2353
Esomeprazole	-2354
ge	-2355
ophil	-2356
remia	-2357
▁Liver	-2358
▁carotid	-2359
▁Mononitrate	-2360
tran	-2361
▁cer	-2362
rontal	-2363
iclo	-2364
emphysema	-2365
▁endoscopy	-2366
▁meglumine	-2367
alome	-2368
▁artificial	-2369
aln	-2370
▁75	-2371
enia	-2372
throp	-2373
▁Lidocaine	-2374
alnutrition	-2375
▁Fentanyl	-2376
Lower	-2377
inger	-2378
alprostadil	-2379
fluconazole	-2380
▁vi	-2381
meta	-2382
pide	-2383
rosis	-2384
Cefmeta	-2385
Cefmetazole	-2386
▁neck	-2387
Nephro	-2388
amicin	-2389
▁Glycyrrhizin	-2390
ixin	-2391
zoar	-2392
▁musk	-2393
▁bezoar	-2394
▁hy	-2395
elease	-2396
eif	-2397
Flush	-2398
opo	-2399
alur	-2400
▁hyalur	-2401
▁hyaluronate	-2402
▁ribs	-2403
Zo	-2404
▁Release	-2405
40	-2406
teb	-2407
odone	-2408
tobac	-2409
▁ery	-2410
▁subarachnoid	-2411
fect	-2412
▁Morphine	-2413
idazole	-2414
La	-2415
so	-2416
ispro	-2417
Cefotaxime	-2418
▁ringer	-2419
ycodone	-2420
Old	-2421
ons	-2422
epime	-2423
Zoitin	-2424
rteri	-2425
▁per	-2426
Shenfu	-2427
cefuroxime	-2428
ephal	-2429
▁Subarachnoid	-2430
over	-2431
Spironolactone	-2432
▁ul	-2433
ophilus	-2434
ematoma	-2435
▁Cream	-2436
▁Lactobac	-2437
▁acidophilus	-2438
▁Lactobacillus	-2439
cap	-2440
rosu	-2441
rosuvastatin	-2442
▁hematoma	-2443
Montelukast	-2444
yth	-2445
Oxiracetam	-2446
Calv	-2447
▁1440	-2448
Calvin	-2449
▁left	-2450
▁7.5	-2451
ature	-2452
chronic	-2453
▁carbonate	-2454
atorvastatin	-2455
fukang	-2456
ongxin	-2457
ythmia	-2458
Lip	-2459
silic	-2460
remature	-2461
Salome	-2462
eritoneal	-2463
phth	-2464
▁12.5	-2465
▁Drops	-2466
Cy	-2467
Xing	-2468
estive	-2469
opathy	-2470
fructose	-2471
Ami	-2472
sound	-2473
mitral	-2474
trasound	-2475
jing	-2476
Nal	-2477
omy	-2478
mefene	-2479
▁acute	-2480
Nalmefene	-2481
hen	-2482
▁cell	-2483
ucrose	-2484
Dimethyl	-2485
silicone	-2486
Dimethylsilicone	-2487
▁rec	-2488
Dafukang	-2489
▁2.5	-2490
▁type	-2491
itor	-2492
▁cream	-2493
aban	-2494
▁embol	-2495
lantation	-2496
Riv	-2497
Ginkgo	-2498
▁con	-2499
▁implantation	-2500
ome	-2501
Amik	-2502
Rivarox	-2503
tomycin	-2504
Amikacin	-2505
Rivaroxaban	-2506
artate	-2507
▁cardi	-2508
Cefepime	-2509
Dap	-2510
▁1%	-2511
Secondary	-2512
Daptomycin	-2513
mop	-2514
onstruc	-2515
▁reconstruc	-2516
upi	-2517
rocin	-2518
Cytidine	-2519
upirocin	-2520
▁disodium	-2521
▁triphosphate	-2522
/100	-2523
ectasis	-2524
III	-2525
▁ne	-2526
oietin	-2527
▁erythrop	-2528
▁erythropoietin	-2529
amm	-2530
leu	-2531
ibei	-2532
▁dig	-2533
Lipitor	-2534
Mas	-2535
lansoprazole	-2536
lith	-2537
lithiasis	-2538
▁cervical	-2539
rate	-2540
▁mesylate	-2541
Ex	-2542
lon	-2543
-1	-2544
irrh	-2545
ammonium	-2546
irrhosis	-2547
ronchitis	-2548
atin	-2549
▁dip	-2550
iliary	-2551
▁digestive	-2552
Shu	-2553
fora	-2554
oline	-2555
foration	-2556
▁hep	-2557
poral	-2558
leukin	-2559
▁interleukin	-2560
ocal	-2561
Malnutrition	-2562
▁67	-2563
zyme	-2564
▁enzyme	-2565
▁dipeptide	-2566
▁Lim	-2567
▁Limongxin	-2568
-11	-2569
▁stent	-2570
▁nitrate	-2571
eridol	-2572
ker	-2573
mon	-2574
▁fructose	-2575
Hypokalemia	-2576
pin	-2577
alsy	-2578
▁palsy	-2579
Lumbar	-2580
phthal	-2581
lob	-2582
sol	-2583
Iover	-2584
▁opera	-2585
Ioversol	-2586
ystitis	-2587
▁12	-2588
▁gro	-2589
▁meth	-2590
aleate	-2591
cending	-2592
formin	-2593
olamine	-2594
rrhythmia	-2595
ann	-2596
pidem	-2597
▁20#	-2598
Aibei	-2599
Shenjie	-2600
▁premature	-2601
Zol	-2602
lock	-2603
▁block	-2604
Zolpidem	-2605
Iron	-2606
▁Lispro	-2607
▁Atrial	-2608
oxef	-2609
Latam	-2610
Pancre	-2611
Latamoxef	-2612
Dys	-2613
lobulin	-2614
Butyl	-2615
ricular	-2616
phthalide	-2617
Butylphthalide	-2618
iza	-2619
zhi	-2620
Salv	-2621
ixian	-2622
Salvia	-2623
ocytop	-2624
▁milti	-2625
orrhiza	-2626
▁miltiorrhiza	-2627
af	-2628
lora	-2629
mation	-2630
▁bronchitis	-2631
Maspin	-2632
natural	-2633
▁Sucrose	-2634
lycyrrhiza	-2635
▁Glycyrrhiza	-2636
pray	-2637
arate	-2638
munog	-2639
anemia	-2640
umarate	-2641
munoglobulin	-2642
ied	-2643
Isoph	-2644
Ruian	-2645
Ruianji	-2646
Isophane	-2647
▁Protamine	-2648
▁Biosynthetic	-2649
yr	-2650
Levocarnitine	-2651
Septic	-2652
▁Esmolol	-2653
moh	-2654
romoh	-2655
Infecti	-2656
▁Sus	-2657
▁spine	-2658
▁Sustained	-2659
Scop	-2660
Scopolamine	-2661
mai	-2662
▁Pleural	-2663
▁diffuse	-2664
entricular	-2665
ni	-2666
Brain	-2667
ericardial	-2668
▁comp	-2669
Pell	-2670
▁sep	-2671
iping	-2672
Nicardipine	-2673
emic	-2674
lipide	-2675
▁immunoglobulin	-2676
▁gang	-2677
heng	-2678
ecoxib	-2679
octreotide	-2680
Mupirocin	-2681
Angiography	-2682
tol	-2683
Meiping	-2684
meropenem	-2685
▁acidosis	-2686
ogenic	-2687
▁lim	-2688
▁maleate	-2689
roph	-2690
Bax	-2691
Tri	-2692
inus	-2693
Baxter	-2694
romohexidine	-2695
arbose	-2696
▁contra	-2697
▁contraction	-2698
omyopathy	-2699
▁Multiple	-2700
Nephrolithiasis	-2701
lap	-2702
▁ble	-2703
lapse	-2704
iabetic	-2705
▁bleeding	-2706
▁prolapse	-2707
topril	-2708
Bu	-2709
Nex	-2710
ulo	-2711
Plav	-2712
▁0.3	-2713
Nexium	-2714
Plavix	-2715
emporal	-2716
olic	-2717
▁Val	-2718
Local	-2719
▁Valproate	-2720
Namefen	-2721
wth	-2722
bolic	-2723
▁growth	-2724
Metabolic	-2725
xu	-2726
▁femoral	-2727
Arrhythmia	-2728
ocytopenia	-2729
▁ox	-2730
ysmal	-2731
chemic	-2732
aroxysmal	-2733
Ha	-2734
edic	-2735
Metformin	-2736
Man	-2737
Mansi	-2738
Mansitol	-2739
lite	-2740
neumoniae	-2741
opa	-2742
othy	-2743
roxine	-2744
Parecoxib	-2745
▁sti	-2746
verteb	-2747
▁stage	-2748
ao	-2749
edics	-2750
Levothy	-2751
Levothyroxine	-2752
Femoral	-2753
▁seal	-2754
alvular	-2755
Dom	-2756
itong	-2757
Clon	-2758
Thromb	-2759
▁reconstruction	-2760
adrenal	-2761
▁defect	-2762
oderate	-2763
lia	-2764
beineng	-2765
ventricular	-2766
rad	-2767
Tam	-2768
sulo	-2769
Tamsulo	-2770
Tamsulosin	-2771
yd	-2772
▁j	-2773
arditis	-2774
▁granules	-2775
Ul	-2776
▁Tra	-2777
▁lateral	-2778
oli	-2779
roter	-2780
roterenol	-2781
traconazole	-2782
▁leaf	-2783
Thymus	-2784
nidazole	-2785
Intestinal	-2786
tig	-2787
Tramadol	-2788
▁method	-2789
lyce	-2790
Spir	-2791
Spirenol	-2792
itraconazole	-2793
▁septal	-2794
lipidemia	-2795
MeC	-2796
Weif	-2797
Weifan	-2798
xuening	-2799
MeCobalamin	-2800
voriconazole	-2801
gan	-2802
Lora	-2803
Acarbose	-2804
Loratadine	-2805
amo	-2806
gas	-2807
mul	-2808
▁Muc	-2809
mulating	-2810
Teicoplanin	-2811
▁stimulating	-2812
Shuxuening	-2813
eish	-2814
Valvular	-2815
ugar	-2816
▁cells	-2817
▁sugar	-2818
rterial	-2819
Cervical	-2820
▁Phosphatidyl	-2821
aly	-2822
dural	-2823
carotid	-2824
▁sal	-2825
ilage	-2826
Gastric	-2827
▁Mucilage	-2828
CH	-2829
];	-2830
CHO	-2831
rola	-2832
▁the	-2833
ropyr	-2834
rolamine	-2835
chloropyr	-2836
ade	-2837
▁36	-2838
zoate	-2839
▁diatri	-2840
ceftriaxone	-2841
▁diatrizoate	-2842
vi	-2843
xic	-2844
▁gu	-2845
bromide	-2846
va	-2847
ided	-2848
▁guided	-2849
Ultrasound	-2850
▁1.	-2851
ology	-2852
ophag	-2853
ephalus	-2854
orth	-2855
orthopa	-2856
▁ganglia	-2857
orthopaedics	-2858
nitroglycerin	-2859
we	-2860
▁But	-2861
uning	-2862
lipressin	-2863
▁organ	-2864
bstructive	-2865
cer	-2866
acial	-2867
Duning	-2868
Heb	-2869
och	-2870
▁vii	-2871
lavic	-2872
Hebeish	-2873
External	-2874
Hebeishuang	-2875
Terlipressin	-2876
cess	-2877
Glyce	-2878
▁verteb	-2879
Glycerol	-2880
Moderate	-2881
Beta	-2882
ren	-2883
opromide	-2884
gia	-2885
tem	-2886
oplas	-2887
isoprolol	-2888
unar	-2889
zine	-2890
Rupture	-2891
▁Sep	-2892
Chlor	-2893
ardia	-2894
▁status	-2895
mph	-2896
olikang	-2897
▁fistula	-2898
▁oxycodone	-2899
ca	-2900
Oste	-2901
▁cardiomyopathy	-2902
apa	-2903
▁Co	-2904
Rab	-2905
Spray	-2906
Thrombocytopenia	-2907
oplasm	-2908
▁neoplasm	-2909
glutathione	-2910
tub	-2911
▁ischemic	-2912
Paracetamol	-2913
Ka	-2914
gout	-2915
▁neoplasms	-2916
Bic	-2917
lavicle	-2918
tasone	-2919
▁mitral	-2920
▁800	-2921
phenol	-2922
▁Butyl	-2923
▁lemon	-2924
▁Butylbromide	-2925
▁asp	-2926
ritis	-2927
▁800000	-2928
Bromohexidine	-2929
▁lobe	-2930
uode	-2931
oporosis	-2932
isopamicin	-2933
▁hepatitis	-2934
Rabeprazole	-2935
ubdural	-2936
Lacunar	-2937
Shenmai	-2938
▁cirrhosis	-2939
▁1#	-2940
▁normal	-2941
▁saline	-2942
Pneumoniae	-2943
ycardia	-2944
ina	-2945
orm	-2946
Bolikang	-2947
Bolikangni	-2948
terbutaline	-2949
▁medication	-2950
▁70	-2951
right	-2952
Los	-2953
▁pancreatitis	-2954
Hyperlipidemia	-2955
ash	-2956
fenac	-2957
tigmine	-2958
iclofenac	-2959
▁vertebra	-2960
Or	-2961
plegia	-2962
Neos	-2963
Neostigmine	-2964
Voriconazole	-2965
Ju	-2966
liteal	-2967
▁ulcer	-2968
sions	-2969
▁poly	-2970
enital	-2971
neurysm	-2972
Intracerebral	-2973
Vi	-2974
ongenital	-2975
);	-2976
Cardiogenic	-2977
Obstructive	-2978
▁perforation	-2979
dix	-2980
Qing	-2981
atob	-2982
atobiliary	-2983
uloc	-2984
Papa	-2985
▁0.6	-2986
cefdix	-2987
verine	-2988
cefdixone	-2989
Papaverine	-2990
eningeal	-2991
Fe	-2992
Uro	-2993
stem	-2994
Basal	-2995
▁polyp	-2996
thyroidism	-2997
imer	-2998
▁Bicarbonate	-2999
heart	-3000
▁Isop	-3001
ropathy	-3002
Endoscop	-3003
phenolate	-3004
Endoscopic	-3005
Paroxysmal	-3006
▁Isoproterenol	-3007
▁polyphenolate	-3008
Ur	-3009
▁60#	-3010
Xil	-3011
▁De	-3012
Xilixin	-3013
Folic	-3014
nosyl	-3015
ionine	-3016
nosylmeth	-3017
nosylmethionine	-3018
zhe	-3019
zheimer	-3020
▁diabetic	-3021
ole	-3022
ord	-3023
Trime	-3024
Dextran	-3025
Trimetaz	-3026
▁Secondary	-3027
Trimetazidine	-3028
Roch	-3029
efen	-3030
Rochefen	-3031
▁cholecystitis	-3032
▁avi	-3033
etine	-3034
ystectomy	-3035
▁avibactam	-3036
▁cholecystectomy	-3037
Amp	-3038
doc	-3039
Juve	-3040
olan	-3041
Betaloc	-3042
Atomolan	-3043
Ampicillin	-3044
▁Traumatic	-3045
opneumothorax	-3046
Un	-3047
Domont	-3048
ulocyte	-3049
Ventricular	-3050
Osteoporosis	-3051
ae	-3052
▁res	-3053
Alzheimer	-3054
sta	-3055
▁(2	-3056
▁ap	-3057
ifid	-3058
▁750	-3059
▁Cerebral	-3060
Gad	-3061
▁48	-3062
▁atom	-3063
▁Deacetylated	-3064
Clonidine	-3065
Dil	-3066
▁lymph	-3067
oul	-3068
hale	-3069
rilol	-3070
▁Dime	-3071
Tianxing	-3072
mopressin	-3073
▁Dimeglumine	-3074
esh	-3075
▁pop	-3076
▁Fumarate	-3077
Bisoprolol	-3078
▁popliteal	-3079
▁we	-3080
terol	-3081
ipu	-3082
▁granulocyte	-3083
dermal	-3084
floxacin	-3085
Halop	-3086
Haloperidol	-3087
Kal	-3088
ight	-3089
haler	-3090
▁(2:1)	-3091
▁inhaler	-3092
▁rupture	-3093
ace	-3094
erc	-3095
you	-3096
vasive	-3097
Tegrilol	-3098
teg	-3099
rani	-3100
tegacyclin	-3101
cal	-3102
Hypoxic	-3103
erative	-3104
diammonium	-3105
▁glycyrrhizinate	-3106
1-	-3107
Rh	-3108
len	-3109
Yipu	-3110
ally	-3111
▁ade	-3112
▁min	-3113
entin	-3114
imally	-3115
linang	-3116
▁lesions	-3117
▁invasive	-3118
Kanglinang	-3119
▁minimally	-3120
▁mon	-3121
iosmin	-3122
▁aspartate	-3123
▁neph	-3124
gastro	-3125
tan	-3126
▁28	-3127
omple	-3128
order	-3129
Ascites	-3130
omplete	-3131
▁atomization	-3132
Diosmin	-3133
▁cord	-3134
acteri	-3135
gastrodin	-3136
Congenital	-3137
Fluconazole	-3138
Sul	-3139
▁120	-3140
emagglutinin	-3141
ying	-3142
ameth	-3143
orta	-3144
ified	-3145
▁aorta	-3146
▁Chronic	-3147
Kalu	-3148
calp	-3149
ornidazole	-3150
long	-3151
Beite	-3152
opril	-3153
upying	-3154
Brainstem	-3155
▁occupying	-3156
Dab	-3157
Fos	-3158
don	-3159
esin	-3160
▁atherosclerosis	-3161
▁at	-3162
▁Malignant	-3163
▁veins	-3164
Fu	-3165
con	-3166
▁Mi	-3167
pend	-3168
elatin	-3169
▁emphysema	-3170
perg	-3171
Mome	-3172
leeding	-3173
▁Mitral	-3174
▁gelatin	-3175
▁disorder	-3176
Mometasone	-3177
edi	-3178
▁pre	-3179
odamine	-3180
ensional	-3181
atch	-3182
▁Rib	-3183
iation	-3184
▁patch	-3185
▁frontal	-3186
dam	-3187
▁calc	-3188
low	-3189
ixed	-3190
Infectious	-3191
dema	-3192
Clindam	-3193
Clindamycin	-3194
▁mar	-3195
▁mono	-3196
▁embolism	-3197
▁right	-3198
▁Dexmedetomidine	-3199
▁Di	-3200
▁free	-3201
▁gastr	-3202
▁cyclic	-3203
▁adenosine	-3204
▁gastrectomy	-3205
▁monophosphate	-3206
hao	-3207
Xinghao	-3208
Temporal	-3209
▁Meitong	-3210
uma	-3211
cinoma	-3212
▁endoc	-3213
Aneurysm	-3214
▁positron	-3215
▁Dih	-3216
▁Mod	-3217
▁Modified	-3218
▁Dihydrochloride	-3219
75	-3220
ags	-3221
▁seg	-3222
▁bags	-3223
▁triple	-3224
▁segment	-3225
ram	-3226
▁Aortic	-3227
Vascular	-3228
Rhub	-3229
Xime	-3230
prom	-3231
▁Head	-3232
Dixian	-3233
Rhubarb	-3234
Ximexin	-3235
Chlorprom	-3236
Chlorpromazine	-3237
igh	-3238
▁42	-3239
oint	-3240
▁elev	-3241
bi	-3242
Dabesin	-3243
non	-3244
▁ST	-3245
ingk	-3246
Frontal	-3247
▁elevation	-3248
▁operating	-3249
tel	-3250
Duma	-3251
Celec	-3252
Celecoxib	-3253
olysaccharide	-3254
.4	-3255
jia	-3256
sep	-3257
Elev	-3258
erculo	-3259
Elevated	-3260
Protamine	-3261
telectasis	-3262
▁disc	-3263
Facial	-3264
▁herniation	-3265
▁J	-3266
shock	-3267
▁append	-3268
▁subdural	-3269
Chuan	-3270
ranch	-3271
tract	-3272
▁tric	-3273
▁branch	-3274
▁infect	-3275
Yaningding	-3276
Etam	-3277
Etams	-3278
atation	-3279
▁compres	-3280
Iopromide	-3281
Etamsylate	-3282
gina	-3283
tolu	-3284
▁2.0	-3285
▁24.4	-3286
toluene	-3287
▁angina	-3288
Aminotoluene	-3289
yz	-3290
aryn	-3291
yzae	-3292
kezhi	-3293
Asperg	-3294
oulder	-3295
vention	-3296
▁oryzae	-3297
Chuankezhi	-3298
Aspergillus	-3299
▁pancreatin	-3300
nao	-3301
ulong	-3302
Bladder	-3303
cefotaxime	-3304
tranexamic	-3305
IU	-3306
▁glyc	-3307
Meningeal	-3308
▁limb	-3309
Xingnao	-3310
Xingnaojing	-3311
▁diseases	-3312
gk	-3313
gkis	-3314
kers	-3315
▁soft	-3316
anning	-3317
trodon	-3318
iclovir	-3319
▁markers	-3320
gkistrodon	-3321
▁Inf	-3322
▁part	-3323
cholic	-3324
▁intervention	-3325
sode	-3326
dopril	-3327
sodeoxy	-3328
sodeoxycholic	-3329
▁es	-3330
tial	-3331
▁mal	-3332
natremia	-3333
▁Dobutamine	-3334
bscess	-3335
12	-3336
rapy	-3337
▁Renal	-3338
▁glycol	-3339
▁polyps	-3340
yethylene	-3341
Dep	-3342
Perin	-3343
erebell	-3344
▁Sepsis	-3345
Perindopril	-3346
somatostatin	-3347
yclo	-3348
oxicillin	-3349
▁Warfarin	-3350
▁ascending	-3351
▁magnesium	-3352
acid	-3353
undle	-3354
etoacid	-3355
▁bundle	-3356
erebellar	-3357
▁ra	-3358
ouse	-3359
▁Jie	-3360
▁edema	-3361
▁dispersible	-3362
exin	-3363
praz	-3364
Alpraz	-3365
ycline	-3366
Alprazolam	-3367
Xin	-3368
ystem	-3369
any	-3370
sil	-3371
Fosf	-3372
ibial	-3373
▁Damo	-3374
▁urinary	-3375
Fosfomycin	-3376
emaker	-3377
Pancreatic	-3378
diclofenac	-3379
Dysbi	-3380
Hemoc	-3381
▁flora	-3382
oagulase	-3383
Dysbiosis	-3384
Hemocoagulase	-3385
Cap	-3386
plas	-3387
▁Musk	-3388
▁pacemaker	-3389
opolysaccharide	-3390
ful	-3391
esen	-3392
itan	-3393
▁space	-3394
▁vascular	-3395
rophic	-3396
tenosis	-3397
Pancreatin	-3398
▁Sp	-3399
Baif	-3400
opoietin	-3401
esenteric	-3402
▁Abdominal	-3403
▁Intracranial	-3404
▁thrombopoietin	-3405
Ure	-3406
mouse	-3407
▁Soft	-3408
▁Chest	-3409
▁three	-3410
erculosis	-3411
▁traumatic	-3412
▁tricuspid	-3413
Wet	-3414
aste	-3415
▁sinus	-3416
Baifule	-3417
▁compress	-3418
Budesonide	-3419
moxifloxacin	-3420
vis	-3421
Resh	-3422
gree	-3423
aping	-3424
izheng	-3425
▁degree	-3426
Reshaping	-3427
100	-3428
poc	-3429
vin	-3430
itic	-3431
▁0.5%	-3432
▁4100	-3433
vinpoc	-3434
Valsartan	-3435
vinpocetine	-3436
Ik	-3437
Ikx	-3438
dil	-3439
Open	-3440
galy	-3441
Ikxar	-3442
lixing	-3443
Haizheng	-3444
oventricular	-3445
Haizhenglixing	-3446
Za	-3447
Zaep	-3448
ropa	-3449
vity	-3450
▁duct	-3451
Zaeple	-3452
▁formo	-3453
▁malfor	-3454
olanzapine	-3455
▁formation	-3456
▁formoterol	-3457
▁nephropathy	-3458
▁malformation	-3459
Orn	-3460
arav	-3461
edarav	-3462
omegaly	-3463
edaravone	-3464
▁Respiratory	-3465
mp	-3466
aso	-3467
Citic	-3468
fenone	-3469
eridone	-3470
Citicoline	-3471
ropafenone	-3472
gallbladder	-3473
Mingk	-3474
▁0.75	-3475
Succin	-3476
▁joint	-3477
Succinyl	-3478
glycerin	-3479
Ascending	-3480
Mingkexin	-3481
▁epilepsy	-3482
▁infusion	-3483
Hyperkalemia	-3484
Wanb	-3485
Xita	-3486
▁nec	-3487
izhen	-3488
Hypert	-3489
tomach	-3490
Wanbang	-3491
Clavicle	-3492
▁stomach	-3493
Xitaizhen	-3494
▁gel	-3495
cavity	-3496
potassium	-3497
Hepatobiliary	-3498
ech	-3499
ere	-3500
▁tub	-3501
ipital	-3502
▁esophag	-3503
Ursodeoxycholic	-3504
wei	-3505
ndil	-3506
Losec	-3507
Nicora	-3508
Spinal	-3509
▁viral	-3510
Captopril	-3511
captopril	-3512
Nicorandil	-3513
Ph	-3514
Sitan	-3515
Sitanin	-3516
sdermal	-3517
▁extract	-3518
Phen	-3519
▁venous	-3520
thoracic	-3521
▁necrosis	-3522
▁operation	-3523
oan	-3524
Bicyc	-3525
Bicyclol	-3526
ath	-3527
Horm	-3528
oser	-3529
▁Hem	-3530
inaste	-3531
Hormoser	-3532
inasteride	-3533
▁Furo	-3534
Bronch	-3535
fracture	-3536
▁Furoate	-3537
Des	-3538
isep	-3539
tress	-3540
▁abscess	-3541
▁bacteri	-3542
isepamicin	-3543
Pericardial	-3544
▁Hypertension	-3545
Bone	-3546
agia	-3547
ioma	-3548
▁Hypo	-3549
▁radi	-3550
phagia	-3551
uodenal	-3552
▁Aspartate	-3553
sheng	-3554
kinson	-3555
▁spinal	-3556
Yish	-3557
anfu	-3558
cipital	-3559
Yishanfu	-3560
loratadine	-3561
pneumothorax	-3562
Naso	-3563
etai	-3564
rier	-3565
tong	-3566
enate	-3567
▁carrier	-3568
▁bacteria	-3569
▁inferior	-3570
▁pneumothorax	-3571
Chen	-3572
▁Pol	-3573
rotein	-3574
thritis	-3575
peridone	-3576
toc	-3577
tritis	-3578
Arterial	-3579
iectasis	-3580
Arg	-3581
Dilatation	-3582
▁ventricular	-3583
open	-3584
umat	-3585
Double	-3586
▁Polys	-3587
▁Pituitrin	-3588
▁Polysulfate	-3589
num	-3590
▁Infusion	-3591
▁210	-3592
Liwen	-3593
bifid	-3594
bifidus	-3595
ilateral	-3596
Finasteride	-3597
Hypernatremia	-3598
▁polyethylene	-3599
Neck	-3600
▁hal	-3601
ensive	-3602
mopentin	-3603
▁tuberculosis	-3604
Er	-3605
/250	-3606
Erta	-3607
▁dam	-3608
▁skin	-3609
▁damage	-3610
shengfen	-3611
Ertapenem	-3612
Chenshengfen	-3613
▁z	-3614
amb	-3615
Mixed	-3616
▁halys	-3617
lec	-3618
▁atri	-3619
▁scap	-3620
Ruineng	-3621
▁Status	-3622
Sulpirin	-3623
Oxycodone	-3624
berberine	-3625
Diammonium	-3626
ranitidine	-3627
▁Solutions	-3628
▁Glycyrrhizinate	-3629
des	-3630
gel	-3631
Febu	-3632
ance	-3633
odiz	-3634
▁dieth	-3635
cefodiz	-3636
▁emulgel	-3637
▁scapula	-3638
cefodizime	-3639
Febuvastatin	-3640
▁diethylamine	-3641
Letai	-3642
Parkinson	-3643
Jin	-3644
▁pe	-3645
Elec	-3646
Sann	-3647
leuc	-3648
Sannoan	-3649
leucogen	-3650
Thymopentin	-3651
mei	-3652
▁gastritis	-3653
iprofloxacin	-3654
▁Intestinal	-3655
▁embolization	-3656
rophy	-3657
iplegia	-3658
Stenosis	-3659
cephalus	-3660
▁Hemorrhagic	-3661
▁α	-3662
Peif	-3663
pura	-3664
▁pain	-3665
Acyclo	-3666
Peifei	-3667
▁Hyper	-3668
▁limbs	-3669
orectal	-3670
Acyclovir	-3671
Urokinase	-3672
▁Ketoacid	-3673
Peifeikang	-3674
▁Agkistrodon	-3675
Haemagglutinin	-3676
ice	-3677
▁thy	-3678
Hydrocephalus	-3679
Ell	-3680
▁din	-3681
Ellie	-3682
chycardia	-3683
▁dinitrate	-3684
Hypothyroidism	-3685
Ar	-3686
lie	-3687
Drop	-3688
uinal	-3689
liejing	-3690
Thrombin	-3691
Desmopressin	-3692
uk	-3693
tai	-3694
obin	-3695
atrox	-3696
atroxobin	-3697
aiz	-3698
onide	-3699
taining	-3700
Anorectal	-3701
Co	-3702
Bup	-3703
Dag	-3704
ume	-3705
▁35	-3706
▁bo	-3707
gnan	-3708
ysis	-3709
▁dist	-3710
Bupren	-3711
▁coating	-3712
Cerebellar	-3713
Dagliejing	-3714
Buprenorphine	-3715
Bronchiectasis	-3716
idu	-3717
▁la	-3718
onal	-3719
inine	-3720
▁Lung	-3721
release	-3722
▁severe	-3723
Droperidol	-3724
Atelectasis	-3725
▁endocarditis	-3726
aric	-3727
ecub	-3728
reast	-3729
▁decub	-3730
weixian	-3731
▁Arterial	-3732
▁decubitus	-3733
▁Nitroglycerin	-3734
osin	-3735
oxyc	-3736
gnancy	-3737
Run	-3738
▁enlarg	-3739
▁enlargement	-3740
den	-3741
▁ti	-3742
vein	-3743
aixin	-3744
▁node	-3745
▁Lumbar	-3746
Infective	-3747
ofloxacin	-3748
Hu	-3749
arge	-3750
ulla	-3751
Unsta	-3752
▁2500	-3753
Tibial	-3754
ruitan	-3755
Unstable	-3756
Kairuitan	-3757
Hyd	-3758
urb	-3759
High	-3760
astinal	-3761
urbance	-3762
Electrolyte	-3763
levofloxacin	-3764
▁disturbance	-3765
▁tachycardia	-3766
▁glycyrrhizin	-3767
ecal	-3768
Sinus	-3769
Splen	-3770
▁Pelvic	-3771
▁liquid	-3772
▁weight	-3773
Oxy	-3774
Per	-3775
Neng	-3776
▁heparin	-3777
Ciprofloxacin	-3778
iao	-3779
aund	-3780
Scalp	-3781
Runtan	-3782
aundice	-3783
peng	-3784
uric	-3785
acrog	-3786
▁molec	-3787
acrogol	-3788
Qingpeng	-3789
containing	-3790
▁molecular	-3791
dim	-3792
ira	-3793
rid	-3794
▁pleural	-3795
ontaneous	-3796
dimensional	-3797
▁U	-3798
out	-3799
▁18	-3800
▁Th	-3801
ract	-3802
▁1.2	-3803
Postop	-3804
Prednis	-3805
arbital	-3806
▁thyroid	-3807
Prednisone	-3808
▁arthritis	-3809
Postoperative	-3810
therosclerosis	-3811
Lan	-3812
▁mic	-3813
▁ref	-3814
ephalo	-3815
Asarone	-3816
Lansoprazole	-3817
ishi	-3818
onat	-3819
amcin	-3820
aming	-3821
Kaishi	-3822
taract	-3823
yponat	-3824
iramine	-3825
amcinolone	-3826
▁disorders	-3827
yponatremia	-3828
▁pel	-3829
tocin	-3830
▁pelvis	-3831
Oxytocin	-3832
▁2%	-3833
mall	-3834
iduob	-3835
iduobang	-3836
location	-3837
hu	-3838
tif	-3839
▁hand	-3840
ginkgo	-3841
oot	-3842
Viral	-3843
Arginine	-3844
tronidazole	-3845
epatic	-3846
▁axonal	-3847
▁calcul	-3848
▁system	-3849
coronary	-3850
Occipital	-3851
▁32	-3852
▁mr	-3853
▁hys	-3854
olang	-3855
diamic	-3856
amethox	-3857
▁hyster	-3858
diamicron	-3859
ulfamethox	-3860
▁hysterectomy	-3861
ulfamethoxazole	-3862
eca	-3863
epi	-3864
▁7%	-3865
Faming	-3866
Batroxobin	-3867
▁Promethazine	-3868
ERT	-3869
Brom	-3870
Hand	-3871
Left	-3872
▁TERT	-3873
▁facial	-3874
▁distress	-3875
radycardia	-3876
▁butylamine	-3877
▁resolution	-3878
run	-3879
feng	-3880
runk	-3881
▁acet	-3882
▁spec	-3883
radine	-3884
▁acetonide	-3885
pH	-3886
st	-3887
▁E	-3888
tter	-3889
Intrap	-3890
alysis	-3891
ithine	-3892
▁Plain	-3893
licated	-3894
▁flutter	-3895
▁Temporal	-3896
Artificial	-3897
Kaif	-3898
bell	-3899
yuan	-3900
▁Gas	-3901
Gadob	-3902
aryng	-3903
Rectal	-3904
▁charge	-3905
▁calculi	-3906
▁special	-3907
Kaifulong	-3908
▁dialysis	-3909
Gadobenate	-3910
▁complicated	-3911
Cal	-3912
Pros	-3913
▁Sheng	-3914
Glutamine	-3915
Intraperitoneal	-3916
obarbital	-3917
gus	-3918
Bleeding	-3919
Nengquan	-3920
uricemia	-3921
mm	-3922
spor	-3923
opente	-3924
▁Kidney	-3925
Gadopente	-3926
▁perfusion	-3927
Gadopentetate	-3928
▁ae	-3929
erteb	-3930
rosol	-3931
gustra	-3932
▁Toxic	-3933
▁state	-3934
▁hypert	-3935
ertebral	-3936
▁aerosol	-3937
▁fumarate	-3938
gustrazine	-3939
rous	-3940
▁time	-3941
▁nasal	-3942
romycin	-3943
▁recombinant	-3944
▁hydrocephalus	-3945
ce	-3946
Car	-3947
▁ec	-3948
aral	-3949
tified	-3950
▁varic	-3951
Weiyuan	-3952
▁fortified	-3953
troperitoneal	-3954
Bac	-3955
ild	-3956
esai	-3957
Basil	-3958
▁Tran	-3959
icitis	-3960
▁infla	-3961
Basilar	-3962
Meineng	-3963
▁cardiov	-3964
Dysphagia	-3965
enoxaparin	-3966
Cardiothoracic	-3967
▁cardiovascular	-3968
Furac	-3969
Arteri	-3970
Baixin	-3971
Esophag	-3972
Furacilin	-3973
Baixintong	-3974
Hyponatremia	-3975
▁[10	-3976
▁stan	-3977
▁small	-3978
▁radius	-3979
▁standing	-3980
recombinant	-3981
air	-3982
ida	-3983
Diffuse	-3984
umatoid	-3985
estation	-3986
▁Femoral	-3987
▁Lactate	-3988
▁atrophy	-3989
▁Inferior	-3990
youweixian	-3991
anis	-3992
geta	-3993
ulan	-3994
vedi	-3995
ydra	-3996
▁rib	-3997
opash	-3998
▁clav	-3999
ecavir	-4000
infect	-4001
thecal	-4002
uremia	-4003
vedilol	-4004
▁vegeta	-4005
ydrazine	-4006
▁clavulan	-4007
▁internal	-4008
Intrathecal	-4009
anisodamine	-4010
▁vegetation	-4011
▁Transdermal	-4012
opashydrazine	-4013
AI	-4014
ba	-4015
uhe	-4016
▁37	-4017
Aure	-4018
lipid	-4019
phere	-4020
trima	-4021
▁micros	-4022
cataract	-4023
purative	-4024
trimazole	-4025
Aureomycin	-4026
▁carcinoma	-4027
Alprostadil	-4028
Montelukine	-4029
▁microsphere	-4030
sue	-4031
emur	-4032
onin	-4033
▁1.6	-4034
▁tis	-4035
Bicun	-4036
ticus	-4037
▁femur	-4038
testine	-4039
▁epilep	-4040
▁tissue	-4041
Shanning	-4042
Rheumatoid	-4043
▁intestine	-4044
▁epilepticus	-4045
etal	-4046
ping	-4047
▁mus	-4048
atory	-4049
mmatory	-4050
▁inflammatory	-4051
EN	-4052
AIF	-4053
KAIF	-4054
ovir	-4055
Inter	-4056
KAIFEN	-4057
▁refill	-4058
tubation	-4059
Deprotein	-4060
Deproteinized	-4061
▁clotrimazole	-4062
SV	-4063
SVO	-4064
ean	-4065
▁mi	-4066
juhe	-4067
onic	-4068
litra	-4069
penti	-4070
cholec	-4071
juheji	-4072
▁duode	-4073
Flupenti	-4074
litracen	-4075
Flupentixol	-4076
▁Melitracen	-4077
cholecystitis	-4078
▁appendicitis	-4079
▁Cer	-4080
▁chlo	-4081
Complete	-4082
Ornithine	-4083
▁prostate	-4084
▁su	-4085
Urology	-4086
▁Spinal	-4087
▁hydrogen	-4088
▁Ligustrazine	-4089
Iv	-4090
Anis	-4091
Ivab	-4092
ternum	-4093
▁double	-4094
Duodenal	-4095
Ivabradine	-4096
Anisodamine	-4097
▁chlorhexidine	-4098
ness	-4099
oids	-4100
sure	-4101
vert	-4102
hyper	-4103
serum	-4104
▁ulna	-4105
ardium	-4106
▁Cardi	-4107
ephrosis	-4108
▁therapy	-4109
emorrhoids	-4110
ericardium	-4111
ronephrosis	-4112
▁Ventricular	-4113
hyperuricemia	-4114
ud	-4115
Bulla	-4116
▁tran	-4117
▁zinc	-4118
raceanisodamine	-4119
iti	-4120
▁Fu	-4121
Viag	-4122
▁cen	-4123
iling	-4124
▁dial	-4125
Viagra	-4126
sporin	-4127
▁center	-4128
▁intrac	-4129
▁dialysate	-4130
Phlo	-4131
inol	-4132
▁horm	-4133
Uremia	-4134
anical	-4135
ibular	-4136
rogluc	-4137
▁Rupture	-4138
▁hormone	-4139
Vertebral	-4140
Phlorogluc	-4141
▁bradycardia	-4142
Phloroglucinol	-4143
Iod	-4144
Mild	-4145
tine	-4146
heral	-4147
ripheral	-4148
Cerebrovascular	-4149
oled	-4150
outh	-4151
peri	-4152
▁blu	-4153
▁mix	-4154
ities	-4155
Lopera	-4156
aralysis	-4157
Loperamide	-4158
ultrasound	-4159
pericardial	-4160
Qu	-4161
7.5	-4162
Sux	-4163
▁47.5	-4164
guinal	-4165
linide	-4166
▁Kesai	-4167
iapenem	-4168
Suxameth	-4169
araplegia	-4170
Suxamethonium	-4171
Gli	-4172
Carb	-4173
erus	-4174
Mouth	-4175
etrop	-4176
▁blue	-4177
azepine	-4178
ramycin	-4179
Mouthful	-4180
Ureteral	-4181
▁humerus	-4182
Methylene	-4183
▁Bleeding	-4184
▁mononitrate	-4185
etroperitoneal	-4186
Pre	-4187
amei	-4188
coma	-4189
epag	-4190
liac	-4191
▁reh	-4192
Trace	-4193
Thyroid	-4194
andamei	-4195
epaglinide	-4196
▁extremities	-4197
Dis	-4198
eks	-4199
Calc	-4200
▁weeks	-4201
Esophageal	-4202
ari	-4203
nov	-4204
yer	-4205
olap	-4206
roat	-4207
▁bile	-4208
▁layer	-4209
novolap	-4210
▁throat	-4211
echanical	-4212
▁anterior	-4213
▁suppurative	-4214
sal	-4215
inin	-4216
arriv	-4217
▁flush	-4218
arrival	-4219
▁lotion	-4220
▁flushing	-4221
▁gestation	-4222
▁mechanical	-4223
ressive	-4224
ressure	-4225
complete	-4226
Aciclovir	-4227
cirrhosis	-4228
artificial	-4229
ocarcinoma	-4230
oxycephalo	-4231
desmopressin	-4232
▁Intracerebral	-4233
oxycephalosporin	-4234
.6	-4235
sed	-4236
ones	-4237
pian	-4238
thma	-4239
ulty	-4240
▁non	-4241
iffic	-4242
▁stones	-4243
aryngeal	-4244
ifficulty	-4245
▁sinusitis	-4246
Amoxicillin	-4247
nee	-4248
▁ep	-4249
Salc	-4250
ison	-4251
obac	-4252
Salcat	-4253
▁Septic	-4254
Calamine	-4255
ephalitis	-4256
Salcatonin	-4257
Pheniramine	-4258
▁extubation	-4259
Non	-4260
Hemop	-4261
utong	-4262
▁pill	-4263
azepam	-4264
▁mixed	-4265
gab	-4266
hem	-4267
Oxyc	-4268
ever	-4269
ontin	-4270
▁42.6	-4271
Choled	-4272
logical	-4273
▁breast	-4274
▁lumbar	-4275
Oxycontin	-4276
olangitis	-4277
▁Coronary	-4278
amoxicillin	-4279
Com	-4280
Yib	-4281
mis	-4282
ylo	-4283
xuan	-4284
agent	-4285
iliac	-4286
Yibiao	-4287
▁10000	-4288
Tianxuan	-4289
▁reagent	-4290
Piracetam	-4291
Hypertensive	-4292
Tianxuanqing	-4293
▁cholangitis	-4294
▁vegetations	-4295
ami	-4296
coh	-4297
oxitin	-4298
▁iliac	-4299
ME	-4300
Ent	-4301
▁CO	-4302
▁rh	-4303
Shoulder	-4304
Entecavir	-4305
Triamcinolone	-4306
Hydronephrosis	-4307
Ad	-4308
Tob	-4309
Medi	-4310
enic	-4311
Queti	-4312
Yixin	-4313
ambovir	-4314
ovenous	-4315
Quetiapine	-4316
Unilateral	-4317
Xinkang	-4318
▁varices	-4319
▁inguinal	-4320
▁peritone	-4321
▁econazole	-4322
▁appendectomy	-4323
▁hepatobiliary	-4324
▁interventional	-4325
urea	-4326
Bifid	-4327
terium	-4328
theter	-4329
▁Double	-4330
▁Facial	-4331
Losartan	-4332
Bifidobac	-4333
Nephrology	-4334
Bifidobacterium	-4335
Yixinwei	-4336
▁ascites	-4337
▁Iopromide	-4338
Mediastinal	-4339
sen	-4340
Reba	-4341
Saiz	-4342
yelo	-4343
Adath	-4344
▁epid	-4345
Rebami	-4346
Adathon	-4347
▁compound	-4348
Rebamipide	-4349
Perforation	-4350
▁dim	-4351
hepatic	-4352
isoning	-4353
biapenem	-4354
Ornidazole	-4355
▁poisoning	-4356
Enhancement	-4357
Repaglinide	-4358
▁dimensional	-4359
▁hypertrophic	-4360
car	-4361
sist	-4362
▁hip	-4363
▁Aden	-4364
▁Pethidine	-4365
▁Te	-4366
▁both	-4367
▁foot	-4368
entral	-4369
ukemia	-4370
therapy	-4371
▁jaundice	-4372
Metronidazole	-4373
Dopashydrazine	-4374
rim	-4375
tia	-4376
yin	-4377
Urec	-4378
mentia	-4379
Urecolin	-4380
andibular	-4381
Diclofenac	-4382
Incomplete	-4383
Retroperitoneal	-4384
▁Po	-4385
▁Se	-4386
mepi	-4387
▁degen	-4388
Dilated	-4389
Saizeng	-4390
angioma	-4391
mepiride	-4392
Hepatitis	-4393
▁arterial	-4394
▁Adenocarcinoma	-4395
Coke	-4396
Ores	-4397
▁ding	-4398
▁hypo	-4399
▁closed	-4400
Oresinin	-4401
citation	-4402
ithiasis	-4403
▁dingpian	-4404
▁clavulanate	-4405
Rad	-4406
coholic	-4407
▁Powder	-4408
Difficulty	-4409
Glimepiride	-4410
Low	-4411
Tai	-4412
▁am	-4413
leep	-4414
▁ind	-4415
▁perox	-4416
▁trunk	-4417
airment	-4418
eration	-4419
▁Gastric	-4420
▁adhesion	-4421
▁lymphoma	-4422
▁Aspiration	-4423
▁impairment	-4424
hemagglutinin	-4425
Ca	-4426
▁As	-4427
ogni	-4428
Essen	-4429
amide	-4430
ognitive	-4431
Essential	-4432
▁Clavicle	-4433
Clonazepam	-4434
Depressive	-4435
baiduobang	-4436
▁Tricuspid	-4437
Ma	-4438
abil	-4439
irst	-4440
jiale	-4441
▁Ying	-4442
▁Yinglong	-4443
▁peroxide	-4444
Bud	-4445
Nia	-4446
leb	-4447
pes	-4448
shu	-4449
axiu	-4450
▁2%5	-4451
ectum	-4452
ochol	-4453
ostomy	-4454
▁Brain	-4455
Budaxiu	-4456
teremia	-4457
▁rectum	-4458
ocholithiasis	-4459
BO	-4460
MEBO	-4461
itri	-4462
Bujia	-4463
chial	-4464
itriol	-4465
ranioc	-4466
Bujiatai	-4467
Macrogol	-4468
youjiale	-4469
▁Powders	-4470
▁Teblets	-4471
▁cranioc	-4472
▁rehabil	-4473
▁epidural	-4474
▁shoulder	-4475
Carvedilol	-4476
▁sclerosis	-4477
Domperidone	-4478
▁Paroxysmal	-4479
▁Cardiogenic	-4480
▁craniocerebral	-4481
▁rehabilitation	-4482
BC	-4483
BCG	-4484
ria	-4485
uping	-4486
pelvic	-4487
apentin	-4488
arietal	-4489
▁amlodipine	-4490
▁myocarditis	-4491
▁malnutrition	-4492
Fer	-4493
Fus	-4494
Yim	-4495
sone	-4496
Eperi	-4497
chlor	-4498
▁0.15	-4499
Yimeng	-4500
▁prosta	-4501
Eperisone	-4502
Ofloxacin	-4503
Pregnancy	-4504
▁Cervical	-4505
▁muscular	-4506
Yimengting	-4507
chlorphenamine	-4508
atherosclerosis	-4509
Kef	-4510
Mem	-4511
Tep	-4512
rex	-4513
tag	-4514
carb	-4515
Tepren	-4516
Yuping	-4517
landin	-4518
▁butyl	-4519
▁myelo	-4520
Prostag	-4521
sistent	-4522
Kefulong	-4523
Teprenone	-4524
eritoneum	-4525
yocardial	-4526
▁arteries	-4527
▁leukemia	-4528
Tobramycin	-4529
Yupingfeng	-4530
Prostaglandin	-4531
▁retroperitoneal	-4532
Heart	-4533
lated	-4534
illary	-4535
omatic	-4536
▁resus	-4537
cessful	-4538
▁resuscitation	-4539
Wh	-4540
ult	-4541
ocrip	-4542
▁spray	-4543
plastic	-4544
Hydrogen	-4545
▁biliary	-4546
Bromocrip	-4547
Felodipine	-4548
gabapentin	-4549
Spontaneous	-4550
Bromocriptine	-4551
▁reconstructive	-4552
Xu	-4553
Zy	-4554
Zyg	-4555
atho	-4556
pile	-4557
▁dete	-4558
▁stem	-4559
antong	-4560
ashida	-4561
▁related	-4562
Zygomatic	-4563
Calcitriol	-4564
Miconazole	-4565
athological	-4566
Cardiomegaly	-4567
▁calcification	-4568
hi	-4569
ogl	-4570
ymp	-4571
▁5;	-4572
Whole	-4573
ining	-4574
ymptom	-4575
▁Blood	-4576
Ferrous	-4577
Splenic	-4578
tectomy	-4579
▁Choline	-4580
▁peritoneal	-4581
▁pericardium	-4582
▁prostatectomy	-4583
▁36#	-4584
Niaog	-4585
rapid	-4586
ridge	-4587
lopram	-4588
Central	-4589
▁bridge	-4590
uropathy	-4591
▁Ascites	-4592
italopram	-4593
Niaoganning	-4594
Arteriosclerosis	-4595
Intraventricular	-4596
Ek	-4597
sha	-4598
Benz	-4599
damo	-4600
roli	-4601
▁gre	-4602
▁rad	-4603
▁rhe	-4604
Eksha	-4605
minop	-4606
▁knee	-4607
rolimus	-4608
yinxing	-4609
Cefoxitin	-4610
▁Subdural	-4611
ymptomatic	-4612
yinxingdamo	-4613
▁hemiplegia	-4614
▁endocardial	-4615
San	-4616
▁Sh	-4617
▁ob	-4618
fume	-4619
▁4.0	-4620
▁lic	-4621
▁max	-4622
orice	-4623
▁100#	-4624
fumeixin	-4625
paralysis	-4626
▁licorice	-4627
Ind	-4628
Right	-4629
ystic	-4630
▁lispro	-4631
Alcoholic	-4632
secondary	-4633
▁peripheral	-4634
▁intracranial	-4635
Pra	-4636
Thin	-4637
pres	-4638
▁5.0	-4639
Xinwe	-4640
pression	-4641
tirofiban	-4642
Xinweining	-4643
Lv	-4644
fer	-4645
Lvzh	-4646
Sanl	-4647
ence	-4648
Shock	-4649
Bailing	-4650
Lvzhian	-4651
teritis	-4652
urology	-4653
ycystic	-4654
ergoline	-4655
Sanlitong	-4656
ithromycin	-4657
Hemopneumothorax	-4658
ow	-4659
Colch	-4660
Fuzhi	-4661
eptin	-4662
itter	-4663
Aminop	-4664
Iodoph	-4665
Sternum	-4666
lactate	-4667
▁Compound	-4668
Colchicine	-4669
Aminopeptin	-4670
Hemoperitoneum	-4671
▁bromohexidine	-4672
Ce	-4673
chan	-4674
esar	-4675
illa	-4676
ores	-4677
▁Com	-4678
Doxyc	-4679
arynx	-4680
▁cesar	-4681
trochan	-4682
▁maxilla	-4683
▁section	-4684
▁cesarean	-4685
▁dementia	-4686
Mandibular	-4687
Doxycycline	-4688
▁polycystic	-4689
trochanteric	-4690
Sim	-4691
Mica	-4692
anine	-4693
thral	-4694
Indocy	-4695
uminum	-4696
▁green	-4697
Micafungin	-4698
Indocyanine	-4699
Ap	-4700
Dal	-4701
Tel	-4702
sti	-4703
tep	-4704
Huch	-4705
Xian	-4706
Sleep	-4707
colon	-4708
Daltep	-4709
colony	-4710
Huchuan	-4711
stitial	-4712
▁oblite	-4713
acterial	-4714
Dalteparin	-4715
Simvastatin	-4716
fort	-4717
▁180	-4718
lofen	-4719
asixin	-4720
▁Scalp	-4721
▁fibula	-4722
▁Digoxin	-4723
asixintai	-4724
Myocardial	-4725
▁mesenteric	-4726
Splenomegaly	-4727
▁tic	-4728
Salme	-4729
Telmis	-4730
ective	-4731
fortol	-4732
gastric	-4733
▁Diffuse	-4734
▁sfortol	-4735
▁ticasone	-4736
Salmeterol	-4737
▁rheumatic	-4738
Telmisartan	-4739
▁Hemorrhoids	-4740
▁degenerative	-4741
▁encephalitis	-4742
Tac	-4743
Thi	-4744
end	-4745
very	-4746
Thioc	-4747
ulsion	-4748
capular	-4749
Thioctic	-4750
▁gastric	-4751
Tacrolimus	-4752
Phenobarbital	-4753
ropneumothorax	-4754
Ag	-4755
ew	-4756
ird	-4757
▁Rhe	-4758
ative	-4759
dinir	-4760
Qutong	-4761
▁period	-4762
Laryngeal	-4763
▁thrombus	-4764
▁Atelectasis	-4765
▁thyroidectomy	-4766
xi	-4767
▁valv	-4768
emotherapy	-4769
▁Meningeal	-4770
▁Metabolic	-4771
propafenone	-4772
Qi	-4773
au	-4774
ben	-4775
lta	-4776
xia	-4777
apac	-4778
orid	-4779
thym	-4780
Iliac	-4781
Taige	-4782
enign	-4783
ltami	-4784
munic	-4785
▁spond	-4786
Ornapac	-4787
iohexol	-4788
oridine	-4789
ltamivir	-4790
▁Abnormal	-4791
municating	-4792
▁pericardial	-4793
Iodophoridine	-4794
oi	-4795
clo	-4796
Ganc	-4797
▁byp	-4798
▁lac	-4799
Jinlu	-4800
acral	-4801
oiter	-4802
Dalong	-4803
umeral	-4804
▁deriv	-4805
▁sores	-4806
nectomy	-4807
▁bypass	-4808
▁rectal	-4809
Jinlujie	-4810
Bacteremia	-4811
Ganciclovir	-4812
Symptomatic	-4813
clopidogrel	-4814
Isoproterenol	-4815
▁duodenectomy	-4816
bud	-4817
nea	-4818
ashu	-4819
bian	-4820
▁(25	-4821
▁pure	-4822
aginal	-4823
budashu	-4824
idipine	-4825
ongbian	-4826
▁mening	-4827
Cognitive	-4828
yocarditis	-4829
▁Pneumoniae	-4830
▁Xinweining	-4831
▁derivative	-4832
▁intravenous	-4833
1]	-4834
GI	-4835
ona	-4836
Chew	-4837
idol	-4838
iram	-4839
Celeb	-4840
▁take	-4841
▁pills	-4842
atology	-4843
iramate	-4844
Catheter	-4845
Celebrex	-4846
Pressure	-4847
thymosin	-4848
▁Propafenone	-4849
Mo	-4850
ning	-4851
rush	-4852
ubic	-4853
fting	-4854
ingle	-4855
tosis	-4856
▁mill	-4857
Halome	-4858
▁drain	-4859
Sucrose	-4860
▁Benign	-4861
Urethral	-4862
ingleton	-4863
▁arthrop	-4864
▁million	-4865
▁Tramadol	-4866
▁drainage	-4867
▁grafting	-4868
▁esophageal	-4869
▁laceration	-4870
Halometasone	-4871
Fl	-4872
▁el	-4873
▁ov	-4874
Flum	-4875
Maiz	-4876
azen	-4877
ilis	-4878
urom	-4879
vole	-4880
▁Dys	-4881
Sheng	-4882
▁0.67	-4883
▁gual	-4884
Laurom	-4885
Tianli	-4886
azenil	-4887
invert	-4888
philis	-4889
▁Severe	-4890
▁asthma	-4891
Maizilin	-4892
▁gualenic	-4893
Flumazenil	-4894
hemiplegia	-4895
▁spontaneous	-4896
Lauromacrogol	-4897
ik	-4898
▁tu	-4899
First	-4900
Xuesh	-4901
lucos	-4902
overy	-4903
▁tube	-4904
plasma	-4905
ystemic	-4906
▁Tablet	-4907
▁granule	-4908
Bacterial	-4909
lucosamine	-4910
Dislocation	-4911
▁hemangioma	-4912
▁neuropathy	-4913
Atherosclero	-4914
▁transdermal	-4915
▁obliteration	-4916
Atherosclerotic	-4917
ML	-4918
Aim	-4919
Lox	-4920
ail	-4921
ats	-4922
mic	-4923
Long	-4924
eech	-4925
eraz	-4926
moid	-4927
opro	-4928
rian	-4929
▁was	-4930
▁0.35	-4931
Aimail	-4932
varian	-4933
Loxopro	-4934
rachial	-4935
▁wasting	-4936
Aimailang	-4937
▁Scapular	-4938
Loxoprofen	-4939
Peritoneal	-4940
▁nephritis	-4941
Propafenone	-4942
lla	-4943
Radi	-4944
quam	-4945
anshu	-4946
lasty	-4947
reling	-4948
▁intra	-4949
ecovery	-4950
quamous	-4951
▁urology	-4952
ifonazole	-4953
Qingreling	-4954
Neurosurgery	-4955
Atherosclerosis	-4956
uo	-4957
12)	-4958
▁Oc	-4959
Lipo	-4960
anli	-4961
asin	-4962
bish	-4963
osom	-4964
oste	-4965
term	-4966
ulum	-4967
chist	-4968
spine	-4969
▁wall	-4970
rizine	-4971
syphilis	-4972
chistosom	-4973
Successful	-4974
▁subcutaneous	-4975
chistosomiasis	-4976
ez	-4977
▁9	-4978
axi	-4979
enp	-4980
wel	-4981
Cilo	-4982
Prop	-4983
epez	-4984
inoc	-4985
acalc	-4986
derma	-4987
enpip	-4988
ental	-4989
▁Neck	-4990
Portal	-4991
Xueshu	-4992
epezil	-4993
phyxia	-4994
stazol	-4995
▁bowel	-4996
Shengmai	-4997
Cilostazol	-4998
citalopram	-4999
▁persistent	-5000
Xueshuantong	-5001
azithromycin	-5002
deproteinized	-5003
Abs	-5004
Obs	-5005
bor	-5006
Exer	-5007
glyc	-5008
rene	-5009
Minoc	-5010
Obste	-5011
ament	-5012
ardio	-5013
asoph	-5014
illip	-5015
trics	-5016
▁9000	-5017
▁acup	-5018
▁oste	-5019
Enjing	-5020
Lipoic	-5021
cardio	-5022
tional	-5023
traline	-5024
Systemic	-5025
Exertional	-5026
Obstetrics	-5027
▁Rheumatic	-5028
Minocycline	-5029
▁acupuncture	-5030
Chlorphenamine	-5031
cardiothoracic	-5032
Ery	-5033
Sem	-5034
Tin	-5035
cus	-5036
Suls	-5037
Vent	-5038
them	-5039
▁2%,	-5040
▁3.0	-5041
▁lig	-5042
Eryth	-5043
ungal	-5044
▁1.25	-5045
metrol	-5046
Sulsarin	-5047
Ventolin	-5048
ephritis	-5049
▁atrophic	-5050
Mesenteric	-5051
salbutamol	-5052
Glucosamine	-5053
carbazepine	-5054
phenobarbital	-5055
yi	-5056
til	-5057
yel	-5058
Agil	-5059
Thal	-5060
▁320	-5061
▁term	-5062
Invert	-5063
atella	-5064
istory	-5065
plasty	-5066
silate	-5067
▁Splen	-5068
Agilent	-5069
ropping	-5070
▁valvulo	-5071
amazepine	-5072
▁Aneurysm	-5073
▁Tongbian	-5074
▁duodenum	-5075
▁pregnancy	-5076
▁pathological	-5077
▁valvuloplasty	-5078
Gu	-5079
ij	-5080
Alf	-5081
mip	-5082
pus	-5083
▁si	-5084
▁to	-5085
ange	-5086
ijet	-5087
▁Old	-5088
Colon	-5089
▁deli	-5090
atosus	-5091
terine	-5092
▁basin	-5093
▁melon	-5094
Dihydro	-5095
Semijet	-5096
Alfacalc	-5097
baclofen	-5098
iastinal	-5099
▁Urinary	-5100
▁erythem	-5101
etirizine	-5102
mupirocin	-5103
▁carriers	-5104
▁delivery	-5105
Baiduobang	-5106
Alfacalcidol	-5107
▁erythematosus	-5108
Dihydroergoline	-5109
Pe	-5110
Ear	-5111
aec	-5112
eli	-5113
ewa	-5114
pho	-5115
Coma	-5116
roma	-5117
Ampho	-5118
Teraz	-5119
exole	-5120
Memant	-5121
Pramip	-5122
ewable	-5123
▁lupus	-5124
ephroma	-5125
tericin	-5126
yashida	-5127
▁Bromide	-5128
Memantine	-5129
Terazosin	-5130
Bifonazole	-5131
Pramipexole	-5132
Amphotericin	-5133
/3	-5134
/4	-5135
ua	-5136
gyn	-5137
ergy	-5138
iomy	-5139
Jinti	-5140
matic	-5141
gynaec	-5142
▁beats	-5143
insulin	-5144
ystatin	-5145
Jintiange	-5146
meglumine	-5147
▁aluminum	-5148
▁ligament	-5149
Benidipine	-5150
▁Dysphagia	-5151
Agkistrodon	-5152
gynaecology	-5153
▁deficiency	-5154
▁radiography	-5155
▁esophagectomy	-5156
Don	-5157
Med	-5158
New	-5159
ety	-5160
Fura	-5161
Leuk	-5162
Tolv	-5163
imex	-5164
onge	-5165
ults	-5166
with	-5167
▁LML	-5168
aptan	-5169
xiety	-5170
▁Gran	-5171
▁orei	-5172
▁path	-5173
ulitis	-5174
▁Shock	-5175
▁super	-5176
Colonic	-5177
▁sponge	-5178
jaundice	-5179
osterior	-5180
▁results	-5181
Endoscopy	-5182
Tolvaptan	-5183
▁Diabetic	-5184
▁pathogen	-5185
dermatitis	-5186
mesenteric	-5187
▁Diltiazem	-5188
myocarditis	-5189
Intrahepatic	-5190
▁dislocation	-5191
▁Pneumothorax	-5192
2)	-5193
da	-5194
ten	-5195
▁6#	-5196
▁6%	-5197
Dais	-5198
Vogl	-5199
calc	-5200
demi	-5201
lone	-5202
conbe	-5203
erpes	-5204
ibose	-5205
Kangxin	-5206
▁Tibial	-5207
▁thorax	-5208
Parietal	-5209
demitong	-5210
Voglibose	-5211
▁chewable	-5212
▁dropping	-5213
Paraplegia	-5214
bisoprolol	-5215
▁Hyperkalemia	-5216
▁montmorillonite	-5217
<5	-5218
exi	-5219
los	-5220
opy	-5221
Bile	-5222
azep	-5223
itai	-5224
olar	-5225
seud	-5226
▁mof	-5227
Shexi	-5228
fever	-5229
jiang	-5230
ycoph	-5231
Absorb	-5232
opyrim	-5233
alonson	-5234
azepril	-5235
enolate	-5236
without	-5237
Nystatin	-5238
Shexiang	-5239
cefdinir	-5240
▁mofetil	-5241
▁sucrose	-5242
Absorbent	-5243
Bromopyrim	-5244
▁secondary	-5245
ebrovascular	-5246
ycophenolate	-5247
Bromopyrimidine	-5248
Hyperthyroidism	-5249
▁+	-5250
gar	-5251
ody	-5252
rag	-5253
Pina	-5254
bone	-5255
iaph	-5256
Asmei	-5257
Trans	-5258
sugar	-5259
▁inci	-5260
▁pine	-5261
Pinave	-5262
Trache	-5263
Anxiety	-5264
iaphrag	-5265
youpile	-5266
▁goiter	-5267
▁nasoph	-5268
▁Complex	-5269
▁Frontal	-5270
umatology	-5271
▁incision	-5272
Pinaverium	-5273
▁Infection	-5274
▁esophagus	-5275
▁arthroplasty	-5276
7):	-5277
Euc	-5278
nut	-5279
rab	-5280
Ruib	-5281
alyp	-5282
Morph	-5283
Space	-5284
cheal	-5285
doxyc	-5286
emale	-5287
splen	-5288
Cistan	-5289
Ruibai	-5290
odular	-5291
olesta	-5292
vertic	-5293
▁labor	-5294
▁tests	-5295
Eucalyp	-5296
cussion	-5297
▁aspart	-5298
Chestnut	-5299
inguinal	-5300
splenism	-5301
Cistanche	-5302
Donepezil	-5303
olestasis	-5304
Eucalyptus	-5305
Morpholine	-5306
domperidone	-5307
doxycycline	-5308
iaphragmatic	-5309
12-	-5310
▁(5	-5311
Daxi	-5312
Skin	-5313
Youl	-5314
chiz	-5315
ophr	-5316
▁tig	-5317
Third	-5318
Youli	-5319
atent	-5320
Breast	-5321
Mental	-5322
bishen	-5323
htness	-5324
toprol	-5325
▁(5:1)	-5326
Biliary	-5327
▁Hypert	-5328
Xianfeng	-5329
chizophr	-5330
▁Metoprol	-5331
kangbishen	-5332
▁tightness	-5333
▁paraplegia	-5334
Interstitial	-5335
chizophrenia	-5336
metronidazole	-5337
Meg	-5338
Sme	-5339
sim	-5340
tac	-5341
cope	-5342
glip	-5343
idic	-5344
oral	-5345
prem	-5346
ymph	-5347
▁24#	-5348
motor	-5349
openia	-5350
Fusidic	-5351
ephalic	-5352
▁leiomy	-5353
Bacillus	-5354
Shujiang	-5355
Tianqing	-5356
axillary	-5357
premixed	-5358
ronchial	-5359
▁myeloma	-5360
▁oxalate	-5361
▁Internal	-5362
nadroparin	-5363
verticulum	-5364
▁biosynthe	-5365
Shujiangzhi	-5366
simvastatin	-5367
Escitalopram	-5368
Schizophrenia	-5369
▁biosynthesis	-5370
met	-5371
zop	-5372
Isos	-5373
huji	-5374
rist	-5375
▁orb	-5376
▁out	-5377
tysis	-5378
urine	-5379
zopic	-5380
Energy	-5381
▁fever	-5382
▁Sacral	-5383
Dexzopic	-5384
Isoshuji	-5385
Radiology	-5386
ilatation	-5387
metformin	-5388
▁Granules	-5389
onephritis	-5390
▁radiology	-5391
Dexzopiclone	-5392
Erythromycin	-5393
retroperitoneal	-5394
My	-5395
Sc	-5396
Yu	-5397
io	-5398
ue	-5399
Ser	-5400
Top	-5401
lux	-5402
▁Ec	-5403
Sita	-5404
Vita	-5405
hist	-5406
utus	-5407
Apric	-5408
Yuean	-5409
▁Ding	-5410
▁arrh	-5411
▁dish	-5412
Megest	-5413
bitter	-5414
ugular	-5415
Apricot	-5416
Hydroxy	-5417
Patella	-5418
gliptin	-5419
histine	-5420
▁Nephro	-5421
▁acutus	-5422
Cephalic	-5423
Diabetic	-5424
Ischemic	-5425
Yueanxin	-5426
Emphysema	-5427
Megestrol	-5428
epidermal	-5429
Vitalipide	-5430
▁emergency	-5431
▁leiomyoma	-5432
Betahistine	-5433
Sitagliptin	-5434
▁arrhythmia	-5435
Hypertrophic	-5436
▁Hypokalemia	-5437
▁Hypertensive	-5438
▁chemotherapy	-5439
Cardiomyopathy	-5440
Myr	-5441
bow	-5442
▁3;	-5443
Lobe	-5444
cies	-5445
mune	-5446
quat	-5447
▁Shu	-5448
▁dew	-5449
▁root	-5450
Myrtle	-5451
Sacral	-5452
▁Iliac	-5453
Nodular	-5454
▁loquat	-5455
Anterior	-5456
Lobeline	-5457
Iodixanol	-5458
bilateral	-5459
Sertraline	-5460
▁nasopharynx	-5461
triamcinolone	-5462
▁Hypoproteinemia	-5463
yu	-5464
▁Q	-5465
Ris	-5466
irc	-5467
Cine	-5468
alac	-5469
mpon	-5470
▁Dis	-5471
gmoid	-5472
Smetal	-5473
Speech	-5474
cology	-5475
rimary	-5476
sepsis	-5477
wanshu	-5478
▁apnea	-5479
▁groin	-5480
mponade	-5481
Thalamic	-5482
ulomotor	-5483
Cinepazide	-5484
▁tamponade	-5485
Risperidone	-5486
alaciclovir	-5487
oseltamivir	-5488
wanshuangli	-5489
▁Arrhythmia	-5490
Arteriovenous	-5491
▁malignancies	-5492
Zu	-5493
Tim	-5494
Zhi	-5495
oge	-5496
▁Lo	-5497
Cont	-5498
ibao	-5499
irth	-5500
Ganli	-5501
Zuoge	-5502
oster	-5503
▁Cont	-5504
Patent	-5505
▁Lower	-5506
▁birth	-5507
▁stone	-5508
Timolin	-5509
Ganlixin	-5510
Contusion	-5511
Meglumine	-5512
vertebral	-5513
▁squamous	-5514
▁arteriovenous	-5515
Can	-5516
Yiz	-5517
urn	-5518
alle	-5519
arth	-5520
asth	-5521
olol	-5522
para	-5523
▁sar	-5524
Cereb	-5525
Kitai	-5526
Yizhe	-5527
seudo	-5528
thiam	-5529
troke	-5530
▁Gual	-5531
▁orth	-5532
Candes	-5533
asthma	-5534
▁Hydro	-5535
▁elbow	-5536
Propran	-5537
optysis	-5538
▁250000	-5539
▁cereal	-5540
▁examin	-5541
Cerebrop	-5542
Coenzyme	-5543
Diabetes	-5544
▁hypoxic	-5545
▁sigmoid	-5546
▁embolish	-5547
▁pressure	-5548
Leukopenia	-5549
▁Gualenate	-5550
Candesartan	-5551
Propranolol	-5552
Tracheostomy	-5553
▁examination	-5554
Carbamazepine	-5555
Mycophenolate	-5556
Cerebroprotein	-5557
▁communicating	-5558
Eth	-5559
Tub	-5560
ifu	-5561
ris	-5562
xim	-5563
▁Ex	-5564
Bait	-5565
Fuda	-5566
Itop	-5567
Ying	-5568
amip	-5569
ibro	-5570
uron	-5571
▁30#	-5572
▁Gan	-5573
▁alk	-5574
Common	-5575
luzole	-5576
▁Basal	-5577
Baitang	-5578
Fudaxin	-5579
Yinglan	-5580
amipril	-5581
▁uremia	-5582
Itopride	-5583
acarbose	-5584
cefepime	-5585
enteritis	-5586
▁Mesilate	-5587
Cetirizine	-5588
Baitangping	-5589
ceftazidime	-5590
parathyroidism	-5591
Du	-5592
ak	-5593
nt	-5594
Aut	-5595
Enc	-5596
Tyl	-5597
oim	-5598
allo	-5599
cide	-5600
eral	-5601
icol	-5602
ilex	-5603
onol	-5604
sity	-5605
▁Oil	-5606
Iodin	-5607
▁Open	-5608
▁anti	-5609
▁live	-5610
Autoim	-5611
Qingyu	-5612
cident	-5613
spinal	-5614
▁Cilex	-5615
▁retin	-5616
Qiangli	-5617
Tylenol	-5618
ambonol	-5619
▁ocular	-5620
▁zoster	-5621
epatitis	-5622
▁Humeral	-5623
Iodinated	-5624
▁accident	-5625
Autoimmune	-5626
▁Cilexetil	-5627
pheniramine	-5628
▁retinopathy	-5629
dle	-5630
mond	-5631
ofib	-5632
ptic	-5633
tero	-5634
▁pur	-5635
Ribof	-5636
alein	-5637
gingk	-5638
iatal	-5639
iddle	-5640
lavin	-5641
▁circ	-5642
▁thin	-5643
Phenol	-5644
gingko	-5645
Shuheng	-5646
vulsion	-5647
▁Thromb	-5648
▁almond	-5649
Ramipril	-5650
▁purpura	-5651
bronchial	-5652
phthalein	-5653
▁gangrene	-5654
Benazepril	-5655
Riboflavin	-5656
carvedilol	-5657
▁Occipital	-5658
▁dilatation	-5659
▁Dexamethasone	-5660
▁intracerebral	-5661
Phenolphthalein	-5662
schistosomiasis	-5663
Az	-5664
Fan	-5665
Fol	-5666
ear	-5667
ifen	-5668
▁sub	-5669
Zhiwe	-5670
hexol	-5671
lodys	-5672
semin	-5673
wning	-5674
Female	-5675
Fusong	-5676
yelodys	-5677
▁serous	-5678
asthenia	-5679
Zhiweibao	-5680
ophilized	-5681
seminated	-5682
▁Nephroma	-5683
Topiramate	-5684
ondansetron	-5685
Polyethylene	-5686
yelodysplastic	-5687
▁Hypernatremia	-5688
Re	-5689
qi	-5690
▁Z	-5691
Sen	-5692
Sup	-5693
anx	-5694
lor	-5695
oci	-5696
▁up	-5697
lamp	-5698
resh	-5699
xoma	-5700
▁ass	-5701
axial	-5702
laite	-5703
ximab	-5704
▁5000	-5705
▁burn	-5706
▁phal	-5707
Senile	-5708
lampsia	-5709
ociated	-5710
opedics	-5711
▁Killip	-5712
▁phalanx	-5713
▁without	-5714
Kanglaite	-5715
Peripheral	-5716
Cholestasis	-5717
▁associated	-5718
▁orthopedics	-5719
To	-5720
Gug	-5721
Pul	-5722
Reb	-5723
ife	-5724
keb	-5725
Huid	-5726
earm	-5727
icon	-5728
isen	-5729
ytic	-5730
▁Hyd	-5731
Cefaz	-5732
Gugua	-5733
april	-5734
arfan	-5735
irect	-5736
izide	-5737
ortal	-5738
pathy	-5739
pidus	-5740
▁Seed	-5741
▁body	-5742
▁insi	-5743
Hiatal	-5744
Rebort	-5745
aortic	-5746
odrine	-5747
▁Heart	-5748
Ovarian	-5749
Pulicon	-5750
kebixin	-5751
Huidisen	-5752
ocytosis	-5753
ofibrate	-5754
zolamide	-5755
▁Extract	-5756
Cefazolin	-5757
▁Infective	-5758
▁insipidus	-5759
rabeprazole	-5760
46	-5761
BE	-5762
OBE	-5763
Pro	-5764
Rif	-5765
tum	-5766
▁pl	-5767
Pere	-5768
Tate	-5769
pens	-5770
tack	-5771
upus	-5772
vean	-5773
Fosin	-5774
Halle	-5775
Joint	-5776
▁open	-5777
Marfan	-5778
Stress	-5779
▁0.646	-5780
▁ovary	-5781
Carvean	-5782
olinium	-5783
▁attack	-5784
ecompens	-5785
▁Tongxin	-5786
▁history	-5787
Pereasone	-5788
Singleton	-5789
Fosinopril	-5790
▁Econazole	-5791
Valaciclovir	-5792
ecompensated	-5793
terilization	-5794
ban	-5795
jog	-5796
jun	-5797
luo	-5798
obe	-5799
tob	-5800
▁Ne	-5801
Glip	-5802
Soft	-5803
Vota	-5804
esic	-5805
ishu	-5806
Fever	-5807
genic	-5808
▁0.48	-5809
jogren	-5810
▁Upper	-5811
Argatro	-5812
Votalin	-5813
volemic	-5814
▁muscle	-5815
calcemia	-5816
▁humeral	-5817
Glipizide	-5818
▁spondylo	-5819
Argatroban	-5820
▁Controlled	-5821
▁Esophageal	-5822
▁Obstructive	-5823
▁Intraperitoneal	-5824
Mir	-5825
Nik	-5826
Ran	-5827
ick	-5828
igo	-5829
▁Gu	-5830
Nikz	-5831
Perc	-5832
Rani	-5833
acia	-5834
omer	-5835
Fluox	-5836
Lymph	-5837
Mirta	-5838
caneal	-5839
herpes	-5840
mening	-5841
▁0.375	-5842
▁graft	-5843
Chloram	-5844
Nikzami	-5845
Primary	-5846
malacia	-5847
▁Pancre	-5848
▁repair	-5849
▁tumors	-5850
otropium	-5851
phenicol	-5852
tastatic	-5853
▁Adrenal	-5854
Fluoxetine	-5855
Ranitidine	-5856
Mirtazapine	-5857
ericarditis	-5858
▁Pancreatic	-5859
▁clavulanic	-5860
▁meningitis	-5861
Percutaneous	-5862
▁hemorrhoids	-5863
ephalomalacia	-5864
▁Hydrocephalus	-5865
▁intravascular	-5866
Chloramphenicol	-5867
ea	-5868
unt	-5869
Meth	-5870
oate	-5871
uria	-5872
▁Mic	-5873
▁muc	-5874
Motor	-5875
lacen	-5876
umfer	-5877
▁Skin	-5878
Gukang	-5879
Qingka	-5880
enemia	-5881
fibrin	-5882
rosben	-5883
trason	-5884
▁Micro	-5885
Sjogren	-5886
▁neuron	-5887
Avulsion	-5888
Recovery	-5889
fibrinog	-5890
▁Maleate	-5891
adolinium	-5892
umference	-5893
▁Thrombin	-5894
▁indirect	-5895
▁ultrason	-5896
▁Gallstone	-5897
▁Urokinase	-5898
▁paralysis	-5899
▁posterior	-5900
Intradermal	-5901
Qingkailing	-5902
fibrinogenemia	-5903
▁circumference	-5904
▁ultrasonography	-5905
Bo	-5906
sa	-5907
Han	-5908
Liz	-5909
Mex	-5910
lar	-5911
rug	-5912
Enal	-5913
chen	-5914
osph	-5915
Lizhu	-5916
angle	-5917
▁Shen	-5918
▁coma	-5919
▁high	-5920
Mexile	-5921
asilar	-5922
ylitis	-5923
▁fetal	-5924
▁treat	-5925
▁stroke	-5926
glycemia	-5927
▁Changle	-5928
▁orbital	-5929
Enalapril	-5930
traumatic	-5931
▁multiple	-5932
Mexiletine	-5933
ocytopenic	-5934
▁adhesions	-5935
▁treatment	-5936
Traumatology	-5937
▁spondylitis	-5938
Decompensated	-5939
Encephalomalacia	-5940
28	-5941
Bi	-5942
Ga	-5943
HR	-5944
ku	-5945
Ank	-5946
Fen	-5947
oba	-5948
sid	-5949
tar	-5950
▁Ca	-5951
Alis	-5952
Etoc	-5953
HRCT	-5954
Tiop	-5955
anka	-5956
icin	-5957
▁ile	-5958
▁par	-5959
Aceta	-5960
Cyclo	-5961
Vitil	-5962
ronin	-5963
▁2.5%	-5964
▁salt	-5965
Medoba	-5966
Transv	-5967
miaona	-5968
yncope	-5969
Uterine	-5970
Etocoxib	-5971
Vitiligo	-5972
ankaishu	-5973
Alisartan	-5974
Tiopronin	-5975
chloremia	-5976
▁brachial	-5977
Transvaginal	-5978
▁Mediastinal	-5979
dopashydrazine	-5980
▁Nephrolithiasis	-5981
Moy	-5982
Ory	-5983
Tan	-5984
aft	-5985
bub	-5986
enc	-5987
iya	-5988
lex	-5989
mag	-5990
▁ph	-5991
Foot	-5992
Memb	-5993
Oryz	-5994
Song	-5995
Yime	-5996
bles	-5997
exaf	-5998
fice	-5999
onam	-6000
thic	-6001
▁pen	-6002
Posac	-6003
Tanre	-6004
Three	-6005
amoya	-6006
diopa	-6007
magen	-6008
ocyte	-6009
sonal	-6010
▁Right	-6011
▁scalp	-6012
▁shaft	-6013
Massive	-6014
Shenwei	-6015
Yimeiya	-6016
bubbles	-6017
exafluo	-6018
treonam	-6019
ulation	-6020
▁common	-6021
▁pentan	-6022
▁transp	-6023
Moyamoya	-6024
Oryzanol	-6025
Prostate	-6026
Subdural	-6027
Tanreqing	-6028
diopathic	-6029
operative	-6030
meningioma	-6031
▁Maxillary	-6032
exafluoride	-6033
▁Hematology	-6034
▁gadolinium	-6035
▁pentanoate	-6036
Posaconazole	-6037
magenweixian	-6038
Oxcarbazepine	-6039
▁sterilization	-6040
▁Cerebrovascular	-6041
),	-6042
asc	-6043
cad	-6044
eft	-6045
laf	-6046
lom	-6047
▁An	-6048
▁Im	-6049
Post	-6050
bina	-6051
coid	-6052
icam	-6053
liao	-6054
ther	-6055
▁Per	-6056
▁lip	-6057
▁thi	-6058
▁yel	-6059
Furan	-6060
cadre	-6061
lomer	-6062
piogl	-6063
ronto	-6064
▁Left	-6065
Bitter	-6066
static	-6067
▁Trunk	-6068
▁count	-6069
itazone	-6070
loxicam	-6071
ulfonic	-6072
▁office	-6073
▁septum	-6074
▁yellow	-6075
Tianliao	-6076
aneurysm	-6077
binaural	-6078
coidosis	-6079
drowning	-6080
leostomy	-6081
loxetine	-6082
rontotem	-6083
ulopathy	-6084
▁partial	-6085
▁Novoline	-6086
▁Ureteral	-6087
▁clavicle	-6088
▁thiamine	-6089
▁Zygomatic	-6090
pioglitazone	-6091
▁Dislocation	-6092
▁lyophilized	-6093
▁sarcoidosis	-6094
▁spondylosis	-6095
rontotemporal	-6096
seudoaneurysm	-6097
Intraoperative	-6098
ym	-6099
bar	-6100
suc	-6101
Bera	-6102
Deli	-6103
cell	-6104
otic	-6105
Doxaz	-6106
Endoc	-6107
Gaode	-6108
aclor	-6109
bclav	-6110
ester	-6111
fness	-6112
prost	-6113
terus	-6114
▁leak	-6115
elitis	-6116
▁compl	-6117
sucrose	-6118
▁uterus	-6119
Personal	-6120
asphyxia	-6121
bclavian	-6122
▁needles	-6123
Beraprost	-6124
Doxazosin	-6125
emothorax	-6126
▁Complete	-6127
▁Brainstem	-6128
Hypovolemic	-6129
peritonitis	-6130
▁Pericardial	-6131
raventricular	-6132
▁complication	-6133
Ri	-6134
1.5	-6135
psy	-6136
tiv	-6137
▁CT	-6138
Qili	-6139
adow	-6140
cite	-6141
enac	-6142
mpai	-6143
rgan	-6144
rost	-6145
sing	-6146
▁3.5	-6147
▁Nik	-6148
1.5%)	-6149
Jinao	-6150
Pubic	-6151
annic	-6152
leran	-6153
▁coag	-6154
▁seiz	-6155
▁stif	-6156
Songhe	-6157
athine	-6158
atosis	-6159
laster	-6160
olysis	-6161
oramen	-6162
veolar	-6163
▁plate	-6164
Yashida	-6165
lerance	-6166
mpaired	-6167
oliosis	-6168
pilepsy	-6169
talcite	-6170
volemia	-6171
ylosing	-6172
▁Niketh	-6173
▁shadow	-6174
▁tannic	-6175
Riluzole	-6176
ydration	-6177
▁Cholang	-6178
▁Hypoxic	-6179
▁Splenic	-6180
Jinaokang	-6181
Nephrotic	-6182
malignant	-6183
▁Diabetes	-6184
Benzathine	-6185
Concussion	-6186
Idiopathic	-6187
Tiotropium	-6188
tobramycin	-6189
▁Singleton	-6190
▁tolerance	-6191
Fenofibrate	-6192
▁Metastatic	-6193
▁penicillin	-6194
Hypoglycemia	-6195
hydrotalcite	-6196
▁Nikethamide	-6197
Calcification	-6198
▁Splenomegaly	-6199
▁coagulopathy	-6200
▁polysaccharide	-6201
cm	-6202
ly	-6203
nu	-6204
uf	-6205
Dic	-6206
Hir	-6207
amp	-6208
flu	-6209
nar	-6210
Peri	-6211
illo	-6212
junc	-6213
nuop	-6214
orus	-6215
requ	-6216
rgic	-6217
Varic	-6218
▁1.5%	-6219
▁Ling	-6220
▁With	-6221
Lactic	-6222
Myxoma	-6223
alosis	-6224
phaden	-6225
tetrac	-6226
vision	-6227
▁ovale	-6228
junctiv	-6229
nuoping	-6230
pliteal	-6231
uterine	-6232
▁gastro	-6233
Impaired	-6234
Oncology	-6235
Varicose	-6236
osphorus	-6237
▁Ganping	-6238
▁Novorax	-6239
▁Shenmai	-6240
▁foramen	-6241
Calcaneal	-6242
Clozapine	-6243
ongestive	-6244
▁Acquired	-6245
▁Duodenal	-6246
▁Recovery	-6247
Oculomotor	-6248
▁Meglumine	-6249
▁alkalosis	-6250
▁enteritis	-6251
Chlortetrac	-6252
ssification	-6253
Disseminated	-6254
▁hypertrophy	-6255
▁supervision	-6256
▁pericarditis	-6257
▁complications	-6258
6%	-6259
Rha	-6260
Yus	-6261
esc	-6262
laz	-6263
put	-6264
vix	-6265
▁45	-6266
amar	-6267
carc	-6268
edis	-6269
glic	-6270
head	-6271
ifor	-6272
kine	-6273
lant	-6274
phur	-6275
trig	-6276
ulus	-6277
ures	-6278
▁10#	-6279
▁228	-6280
▁76%	-6281
▁dor	-6282
▁ure	-6283
2.5%)	-6284
Crush	-6285
Hirud	-6286
Lifen	-6287
Polys	-6288
Tetra	-6289
Yusuf	-6290
bdomy	-6291
salis	-6292
▁0.45	-6293
▁glue	-6294
erated	-6295
lazide	-6296
oprost	-6297
tarsal	-6298
ticide	-6299
▁media	-6300
▁pedis	-6301
Jugular	-6302
Sulphur	-6303
apamide	-6304
arthria	-6305
iformis	-6306
kinesia	-6307
▁cervix	-6308
▁fungal	-6309
▁lichen	-6310
▁output	-6311
Hirudoid	-6312
Lifeneng	-6313
Rhabdomy	-6314
amartoma	-6315
duodenal	-6316
esterone	-6317
▁Sternum	-6318
▁process	-6319
Scoliosis	-6320
asculitis	-6321
▁Sulpirin	-6322
▁dorsalis	-6323
▁seizures	-6324
bronchitis	-6325
carcerated	-6326
gliclazide	-6327
topiramate	-6328
▁stiffness	-6329
▁transplant	-6330
Hypocalcemia	-6331
Ossification	-6332
Polysulfonic	-6333
phosphatidyl	-6334
▁thyroiditis	-6335
Cerebrospinal	-6336
Hypersplenism	-6337
oxcarbazepine	-6338
▁Hexafluoride	-6339
▁Microbubbles	-6340
Rhabdomyolysis	-6341
polysaccharide	-6342
▁licheniformis	-6343
Hemopericardium	-6344
ursodeoxycholic	-6345
▁Frontotemporal	-6346
33	-6347
av	-6348
Bei	-6349
▁Al	-6350
chex	-6351
keto	-6352
▁Bar	-6353
adine	-6354
cious	-6355
losan	-6356
nimex	-6357
soria	-6358
tifen	-6359
Rifamp	-6360
chexia	-6361
sidual	-6362
▁trans	-6363
Kaitong	-6364
illosis	-6365
obesity	-6366
syncope	-6367
▁500000	-6368
▁asperg	-6369
▁gravis	-6370
▁hydrox	-6371
Tracheal	-6372
ketoacid	-6373
onscious	-6374
prostate	-6375
soriasis	-6376
▁trachea	-6377
Popliteal	-6378
hepatitis	-6379
ketotifen	-6380
▁Vascular	-6381
Ankylosing	-6382
Rifampicin	-6383
oagulation	-6384
▁triclosan	-6385
▁vertebral	-6386
encephalitis	-6387
onsciousness	-6388
▁compression	-6389
▁superficial	-6390
Acetazolamide	-6391
▁aspergillosis	-6392
5%	-6393
He	-6394
PT	-6395
St	-6396
efu	-6397
zac	-6398
▁3%	-6399
▁Vi	-6400
omoc	-6401
vous	-6402
▁330	-6403
▁4:1	-6404
▁6.5	-6405
▁Suc	-6406
Yibei	-6407
ineae	-6408
minbu	-6409
ordae	-6410
remic	-6411
topic	-6412
▁tend	-6413
Ketoti	-6414
Prozac	-6415
Second	-6416
▁40000	-6417
▁Optic	-6418
▁Viral	-6419
calcium	-6420
lomerul	-6421
requent	-6422
▁cancer	-6423
▁intrah	-6424
▁larynx	-6425
▁radial	-6426
Ethhexol	-6427
Fanminbu	-6428
Flushing	-6429
erculous	-6430
▁chordae	-6431
▁nervous	-6432
Ileostomy	-6433
entecavir	-6434
pesticide	-6435
psoriasis	-6436
▁Moderate	-6437
▁Shoulder	-6438
Neurogenic	-6439
thiamazole	-6440
▁Emphysema	-6441
▁eclampsia	-6442
▁tendineae	-6443
Compression	-6444
omocysteine	-6445
▁Successful	-6446
Ketotiphenol	-6447
▁rehydration	-6448
Communicating	-6449
▁Pathological	-6450
▁diverticulum	-6451
▁intrahepatic	-6452
▁osteoporosis	-6453
CD	-6454
ui	-6455
Les	-6456
Ose	-6457
Sil	-6458
Tol	-6459
ica	-6460
ivi	-6461
row	-6462
PTCD	-6463
Tami	-6464
Urea	-6465
dine	-6466
ecto	-6467
ffer	-6468
toin	-6469
ucle	-6470
▁133	-6471
▁col	-6472
▁lym	-6473
▁tem	-6474
Huili	-6475
aging	-6476
trang	-6477
verse	-6478
▁Divi	-6479
Fungal	-6480
Hyperh	-6481
Lesong	-6482
Radial	-6483
Spleen	-6484
Taijia	-6485
eneral	-6486
illain	-6487
neumoc	-6488
▁Amino	-6489
▁Barre	-6490
▁pecto	-6491
▁reten	-6492
Tamiflu	-6493
Toltero	-6494
lebitis	-6495
olvulus	-6496
▁marrow	-6497
Biantong	-6498
▁Uterine	-6499
▁imaging	-6500
Bilateral	-6501
Meloxicam	-6502
cefoxitin	-6503
ellulitis	-6504
▁Division	-6505
▁pectoris	-6506
Hypertonic	-6507
Metatarsal	-6508
ochectasis	-6509
▁lymphaden	-6510
▁retention	-6511
Gallbladder	-6512
Oseltamivir	-6513
Tolterodine	-6514
junctivitis	-6515
▁indication	-6516
Dyslipidemia	-6517
Prednisolone	-6518
trangulation	-6519
▁mediastinal	-6520
▁atorvastatin	-6521
▁hydroxyethyl	-6522
Pseudoaneurysm	-6523
omocysteinemia	-6524
▁Aminophylline	-6525
trioventricular	-6526
ii	-6527
Hug	-6528
Ref	-6529
Rid	-6530
alk	-6531
imo	-6532
ixi	-6533
▁SR	-6534
▁mo	-6535
Lamo	-6536
Temo	-6537
andi	-6538
anus	-6539
ilar	-6540
lauc	-6541
vesc	-6542
weid	-6543
zolo	-6544
▁45#	-6545
▁arm	-6546
Organ	-6547
Ridax	-6548
Wrist	-6549
artum	-6550
minal	-6551
pyema	-6552
unnan	-6553
aturia	-6554
idosis	-6555
▁Bulla	-6556
▁Effer	-6557
▁crush	-6558
▁mandi	-6559
angitis	-6560
laucoma	-6561
trigine	-6562
vescent	-6563
weidixi	-6564
Carbomer	-6565
Furamine	-6566
Ridaxian	-6567
Temozolo	-6568
▁myeloid	-6569
▁vaginal	-6570
Infection	-6571
▁Sequelae	-6572
▁arterios	-6573
▁mandible	-6574
▁temporal	-6575
Duloxetine	-6576
Dyskinesia	-6577
Isopamicin	-6578
Subclavian	-6579
tomatology	-6580
▁hamartoma	-6581
▁sulfonate	-6582
Coagulation	-6583
Hydroxyurea	-6584
Lamotrigine	-6585
rogesterone	-6586
▁indapamide	-6587
Temozolomide	-6588
▁Hypovolemia	-6589
▁Effervescent	-6590
▁degeneration	-6591
▁Hypersplenism	-6592
▁intervertebral	-6593
Ao	-6594
Ke	-6595
-40	-6596
Fla	-6597
Lic	-6598
Tet	-6599
Xia	-6600
Yin	-6601
ato	-6602
odg	-6603
Dami	-6604
Ison	-6605
alin	-6606
biof	-6607
ejun	-6608
orui	-6609
▁Bac	-6610
▁abs	-6611
▁ten	-6612
▁tun	-6613
Licun	-6614
Small	-6615
iazid	-6616
skull	-6617
yrate	-6618
▁Hand	-6619
▁Hodg	-6620
▁arch	-6621
Aoqing	-6622
Pregab	-6623
Yinzhi	-6624
phasia	-6625
reterm	-6626
▁micro	-6627
▁nodes	-6628
▁vesic	-6629
Tetanus	-6630
lacenta	-6631
lafoxif	-6632
▁tendon	-6633
▁tibiof	-6634
Damikang	-6635
Epilepsy	-6636
Guillain	-6637
▁Hodgkin	-6638
▁Novorui	-6639
▁absence	-6640
▁hepatic	-6641
Isoniazid	-6642
▁glomerul	-6643
Citalopram	-6644
Pregabalin	-6645
▁Iodixanol	-6646
Yinzhihuang	-6647
lafoxifenac	-6648
▁Bacteremia	-6649
phosphatemia	-6650
▁Cholangioma	-6651
Strangulation	-6652
▁hydrobromide	-6653
▁tibiofibular	-6654
▁consciousness	-6655
▁gastroenteritis	-6656
▁lymphadenopathy	-6657
Ep	-6658
Ir	-6659
Ta	-6660
gu	-6661
Cab	-6662
Mai	-6663
Mid	-6664
gao	-6665
▁Is	-6666
▁ha	-6667
Alle	-6668
Dete	-6669
Dong	-6670
Hash	-6671
Quan	-6672
asci	-6673
mono	-6674
pain	-6675
xiao	-6676
▁30%	-6677
▁bio	-6678
Cabet	-6679
Total	-6680
blood	-6681
gaote	-6682
imoto	-6683
lanto	-6684
lexus	-6685
tilis	-6686
uling	-6687
▁Difu	-6688
▁aden	-6689
esical	-6690
profen	-6691
renous	-6692
ucleic	-6693
yloric	-6694
▁Immun	-6695
▁fibro	-6696
▁jejun	-6697
▁lobar	-6698
Preterm	-6699
tpartum	-6700
▁Portal	-6701
▁ductus	-6702
▁plexus	-6703
▁second	-6704
Acidosis	-6705
Allergic	-6706
Brachial	-6707
Dongling	-6708
Irecoxib	-6709
eratitis	-6710
▁Hepatic	-6711
▁nucleic	-6712
Cabetoxin	-6713
Hashimoto	-6714
Prostatic	-6715
gaoteling	-6716
premature	-6717
▁ketoacid	-6718
▁subtilis	-6719
▁superior	-6720
Dysarthria	-6721
Hypostatic	-6722
batroxobin	-6723
entolamine	-6724
lantoaxial	-6725
Tuberculous	-6726
▁arteriosus	-6727
▁biological	-6728
▁congenital	-6729
▁gangrenous	-6730
Diverticulum	-6731
▁Perforation	-6732
▁hemorrhagic	-6733
▁suppression	-6734
▁ketoacidosis	-6735
Im	-6736
Py	-6737
We	-6738
IIa	-6739
Nuo	-6740
aby	-6741
kiu	-6742
lix	-6743
xue	-6744
yao	-6745
Disc	-6746
Gout	-6747
Sick	-6748
Weis	-6749
Zhen	-6750
bine	-6751
flow	-6752
itud	-6753
spec	-6754
ucin	-6755
Alpha	-6756
Hepat	-6757
Natri	-6758
Nuoqi	-6759
Short	-6760
Xinlu	-6761
aiyao	-6762
domet	-6763
edema	-6764
inter	-6765
lioma	-6766
otrex	-6767
▁2000	-6768
▁VIIa	-6769
▁baby	-6770
Folate	-6771
Killip	-6772
ranous	-6773
rbital	-6774
▁0.125	-6775
▁ester	-6776
▁stric	-6777
▁ulnar	-6778
Benzalk	-6779
History	-6780
lostomy	-6781
▁Venous	-6782
▁tunica	-6783
Natrilix	-6784
Superior	-6785
Xinluona	-6786
aluminum	-6787
dementia	-6788
itudinal	-6789
otrexate	-6790
▁outflow	-6791
▁seminal	-6792
▁vesicle	-6793
Weisaixin	-6794
▁Oxytocin	-6795
▁parietal	-6796
Carboprost	-6797
eneralized	-6798
generative	-6799
hemoptysis	-6800
▁stricture	-6801
▁vaginalis	-6802
▁Mesenteric	-6803
▁Peritoneal	-6804
▁dermatitis	-6805
▁meningioma	-6806
Benzalkonium	-6807
Parkinsonism	-6808
Medloratadine	-6809
▁longitudinal	-6810
▁Hyperlipidemia	-6811
▁Myelodysplastic	-6812
▁cerebrovascular	-6813
.9	-6814
CA	-6815
gh	-6816
hy	-6817
Lab	-6818
cre	-6819
seu	-6820
tio	-6821
xis	-6822
▁21	-6823
▁27	-6824
Uben	-6825
brom	-6826
ough	-6827
roqu	-6828
umab	-6829
Bolod	-6830
Lupus	-6831
allot	-6832
alpha	-6833
lator	-6834
loraz	-6835
oxide	-6836
terop	-6837
▁0.36	-6838
Labeta	-6839
Yunnan	-6840
iferol	-6841
termin	-6842
▁Colon	-6843
▁Third	-6844
▁cysts	-6845
▁ileus	-6846
▁ratio	-6847
▁urine	-6848
Forearm	-6849
roquine	-6850
▁Arteri	-6851
▁Fallot	-6852
▁Spleen	-6853
▁Uremia	-6854
Benzbrom	-6855
Bolodine	-6856
Ubenimex	-6857
inetobac	-6858
▁Carotid	-6859
▁uterine	-6860
Avascular	-6861
Labetalol	-6862
Midodrine	-6863
hematuria	-6864
lorazepam	-6865
omyelitis	-6866
▁varicose	-6867
Cellulitis	-6868
Persistent	-6869
forationof	-6870
▁Cognitive	-6871
Bradycardia	-6872
chloroquine	-6873
inetobacter	-6874
termination	-6875
tlantoaxial	-6876
tropisetron	-6877
▁Cerebellar	-6878
▁Mandibular	-6879
▁calciferol	-6880
▁hemoptysis	-6881
▁peritoneum	-6882
progesterone	-6883
▁esophagitis	-6884
▁haemothorax	-6885
Benzbromarone	-6886
perforationof	-6887
ronchiectasis	-6888
teroposterior	-6889
yelonephritis	-6890
▁diaphragmatic	-6891
3]	-6892
Dev	-6893
Diq	-6894
Hex	-6895
hey	-6896
iga	-6897
kle	-6898
lis	-6899
oni	-6900
orn	-6901
-11]	-6902
Hepa	-6903
Juhe	-6904
Vena	-6905
asse	-6906
azol	-6907
pnea	-6908
urul	-6909
▁Fol	-6910
▁Gel	-6911
▁Pre	-6912
▁ext	-6913
Trunk	-6914
feron	-6915
ingsh	-6916
▁isch	-6917
▁loss	-6918
▁whey	-6919
Dabiga	-6920
Dicoan	-6921
Diqiao	-6922
Follow	-6923
Maixue	-6924
andard	-6925
contin	-6926
kidney	-6927
oresin	-6928
tamide	-6929
veinal	-6930
Beiqing	-6931
angrene	-6932
ellular	-6933
oniosis	-6934
pneumoc	-6935
urulent	-6936
▁lipoma	-6937
Cefdinir	-6938
Hexingsh	-6939
Methazol	-6940
▁Bladder	-6941
▁sternum	-6942
Cirrhosis	-6943
aroxetine	-6944
diltiazem	-6945
▁Butyrate	-6946
▁Catheter	-6947
▁incontin	-6948
Dabigatran	-6949
Maixuekang	-6950
cerebellar	-6951
estational	-6952
interferon	-6953
▁extensive	-6954
▁vertebrae	-6955
Beiqingxing	-6956
agglutinase	-6957
ophosphorus	-6958
▁Hemangioma	-6959
▁transverse	-6960
Hexingshuang	-6961
Methazolamide	-6962
▁concentrated	-6963
▁incontinence	-6964
Myelodysplastic	-6965
▁Cardiomyopathy	-6966
▁hemagglutinase	-6967
Atrioventricular	-6968
Choledochectasis	-6969
▁Retroperitoneal	-6970
15	-6971
Ec	-6972
ha	-6973
Rit	-6974
not	-6975
tip	-6976
zia	-6977
▁Ba	-6978
▁my	-6979
Cefa	-6980
Knee	-6981
Lumb	-6982
oglo	-6983
ondy	-6984
▁Tub	-6985
▁ton	-6986
Fecal	-6987
Venti	-6988
ctive	-6989
omide	-6990
romal	-6991
▁Foot	-6992
▁beta	-6993
▁gush	-6994
Hemato	-6995
Lumbos	-6996
Nengfu	-6997
Otitis	-6998
Uremic	-6999
bacute	-7000
chezia	-7001
rectal	-7002
ubicin	-7003
▁Fatty	-7004
▁wrist	-7005
itabine	-7006
oglobin	-7007
phospha	-7008
▁Speech	-7009
▁sepsis	-7010
Cefaclor	-7011
Hexidine	-7012
Lymphoma	-7013
Membrane	-7014
Standard	-7015
glaucoma	-7016
otherapy	-7017
▁basilar	-7018
▁classif	-7019
▁gushida	-7020
▁ovarian	-7021
Bronchial	-7022
Cefathiam	-7023
Premature	-7024
Ritodrine	-7025
ocellular	-7026
strictive	-7027
▁Killipiv	-7028
▁Mesylate	-7029
▁Stenosis	-7030
▁Urethral	-7031
▁alveolar	-7032
▁ischemia	-7033
Ventilator	-7034
Lumbosacral	-7035
paracetamol	-7036
phosphamide	-7037
▁Immunology	-7038
▁vasculitis	-7039
Azithromycin	-7040
Degenerative	-7041
Hematochezia	-7042
Phentolamine	-7043
Subcutaneous	-7044
Tianqingning	-7045
▁Hyponatremia	-7046
Cefathiamidine	-7047
▁betamethasone	-7048
▁thrombocytosis	-7049
):	-7050
1;	-7051
Wu	-7052
Del	-7053
You	-7054
ele	-7055
ers	-7056
nas	-7057
net	-7058
sup	-7059
tuo	-7060
▁Em	-7061
▁On	-7062
Adhe	-7063
enin	-7064
jiao	-7065
leif	-7066
utol	-7067
▁Hep	-7068
▁apo	-7069
Kesai	-7070
Melis	-7071
Multi	-7072
Wuwei	-7073
Yanli	-7074
ateme	-7075
eliac	-7076
nasos	-7077
odial	-7078
plexy	-7079
rotal	-7080
trong	-7081
▁0.3%	-7082
▁0.33	-7083
Anemia	-7084
Ethamb	-7085
Gutong	-7086
Middle	-7087
Tianji	-7088
Tobers	-7089
Wuling	-7090
Zhenyi	-7091
olytic	-7092
oronal	-7093
tuozhi	-7094
▁Lupus	-7095
▁Neuro	-7096
▁Small	-7097
▁oleif	-7098
▁thigh	-7099
Cranial	-7100
Ischial	-7101
Melissa	-7102
Partial	-7103
Youjing	-7104
matosis	-7105
ovement	-7106
reshing	-7107
sporine	-7108
▁Baiyao	-7109
▁Second	-7110
▁cannot	-7111
▁crisis	-7112
Baclofen	-7113
Biapenem	-7114
aralytic	-7115
atemesis	-7116
emulsion	-7117
inusitis	-7118
leoresin	-7119
luxation	-7120
ureteral	-7121
▁aphasia	-7122
▁jugular	-7123
▁leakage	-7124
▁plaster	-7125
▁taurine	-7126
Arthritis	-7127
Colostomy	-7128
Hydrocele	-7129
Maxillary	-7130
baolikang	-7131
odialysis	-7132
ornithine	-7133
specified	-7134
▁Oncology	-7135
▁apoplexy	-7136
▁asphyxia	-7137
▁catheter	-7138
▁oleifera	-7139
Ethambutol	-7140
Intubation	-7141
Myasthenia	-7142
congestive	-7143
myasthenia	-7144
xiaotuozhi	-7145
▁Vertebral	-7146
▁epidermal	-7147
▁classified	-7148
▁refreshing	-7149
Cyclosporine	-7150
nasosinusitis	-7151
▁Hemodialysis	-7152
▁incarcerated	-7153
pneumoconiosis	-7154
▁microemulsion	-7155
▁Hydronephrosis	-7156
▁anteroposterior	-7157
Tw	-7158
Ele	-7159
Epi	-7160
Jir	-7161
NCA	-7162
Tal	-7163
let	-7164
Cyst	-7165
Duyi	-7166
Elem	-7167
Flat	-7168
Heat	-7169
Prol	-7170
Xifu	-7171
cons	-7172
hich	-7173
huan	-7174
leol	-7175
rism	-7176
sewh	-7177
▁160	-7178
Jiren	-7179
Osteo	-7180
eptic	-7181
icalu	-7182
▁High	-7183
▁rhin	-7184
▁seed	-7185
Bromoh	-7186
Gastro	-7187
Reflux	-7188
leolus	-7189
ocytic	-7190
uricle	-7191
▁Mixed	-7192
▁sleep	-7193
▁which	-7194
Duyiwei	-7195
Elemene	-7196
Humeral	-7197
Talenin	-7198
constip	-7199
pituita	-7200
sewhere	-7201
ticular	-7202
▁Follow	-7203
▁portal	-7204
Jirenfen	-7205
Nephroma	-7206
Oxazepam	-7207
Xifuhuan	-7208
▁Lacunar	-7209
▁syncope	-7210
Aztreonam	-7211
Cefradine	-7212
arthrosis	-7213
▁ureteral	-7214
Bromohexin	-7215
▁Neurology	-7216
▁Pregnancy	-7217
▁elsewhere	-7218
▁malleolus	-7219
icalutamide	-7220
pituitarism	-7221
▁Congenital	-7222
▁Difficulty	-7223
▁Oculomotor	-7224
▁Unilateral	-7225
constipation	-7226
ciprofloxacin	-7227
▁pyelonephritis	-7228
AA	-7229
mb	-7230
Ara	-7231
Geh	-7232
Lof	-7233
MEC	-7234
Mus	-7235
bai	-7236
ens	-7237
idy	-7238
sul	-7239
uaz	-7240
yod	-7241
▁(3	-7242
Basi	-7243
Drug	-7244
Econ	-7245
ancy	-7246
bile	-7247
ella	-7248
emph	-7249
hypo	-7250
llar	-7251
rhea	-7252
toid	-7253
▁vol	-7254
Hugan	-7255
Lofen	-7256
Optic	-7257
bular	-7258
fibro	-7259
onged	-7260
ongue	-7261
sient	-7262
three	-7263
uazhi	-7264
yrene	-7265
Basili	-7266
Goiter	-7267
angxin	-7268
capsul	-7269
emphig	-7270
itonin	-7271
lastic	-7272
ondyle	-7273
yodrol	-7274
▁Crush	-7275
▁Sinus	-7276
Ectopic	-7277
ancytop	-7278
dometri	-7279
nective	-7280
▁polyst	-7281
▁tongue	-7282
▁volume	-7283
Delivery	-7284
Desonide	-7285
Econolin	-7286
Electric	-7287
Gehuazhi	-7288
Hepatoma	-7289
allopian	-7290
▁Basilar	-7291
▁Central	-7292
▁condyle	-7293
Arachnoid	-7294
Paralytic	-7295
Prolonged	-7296
Tetralogy	-7297
aztreonam	-7298
▁Parietal	-7299
▁Squamous	-7300
▁Thoracic	-7301
▁Unstable	-7302
▁atomized	-7303
▁fibrosis	-7304
▁movement	-7305
▁sequelae	-7306
Lofenadine	-7307
capsulated	-7308
▁Hepatitis	-7309
Basiliximab	-7310
Gestational	-7311
ancytopenia	-7312
repaglinide	-7313
Atlantoaxial	-7314
fibromatosis	-7315
▁polystyrene	-7316
▁subluxation	-7317
diaphragmatic	-7318
▁contractions	-7319
▁interstitial	-7320
▁Arteriovenous	-7321
Cyclophosphamide	-7322
Organophosphorus	-7323
Ol	-7324
3.9	-7325
Toe	-7326
asu	-7327
bap	-7328
mao	-7329
raz	-7330
▁72	-7331
▁My	-7332
▁by	-7333
▁on	-7334
ANCA	-7335
Alte	-7336
Code	-7337
Fupu	-7338
Rout	-7339
aite	-7340
iduo	-7341
ista	-7342
meca	-7343
risp	-7344
rofi	-7345
weep	-7346
▁Hav	-7347
▁Iod	-7348
▁Rad	-7349
▁bul	-7350
▁ear	-7351
▁nod	-7352
▁sur	-7353
Pyraz	-7354
Zoled	-7355
chole	-7356
focal	-7357
naphy	-7358
olism	-7359
plase	-7360
racil	-7361
rebap	-7362
think	-7363
toxin	-7364
ulocy	-7365
▁0.28	-7366
▁33.9	-7367
▁Gout	-7368
Celiac	-7369
Osteop	-7370
Peptic	-7371
Xiante	-7372
oracol	-7373
seudom	-7374
sirofi	-7375
▁First	-7376
▁Pubic	-7377
▁alkal	-7378
▁orbit	-7379
Codeine	-7380
Deliduo	-7381
Protein	-7382
Routine	-7383
Scrotal	-7384
abscess	-7385
inamide	-7386
istaxis	-7387
mecaxol	-7388
tension	-7389
▁Ganmao	-7390
▁Glioma	-7391
▁Gutong	-7392
▁Having	-7393
▁forest	-7394
▁laryng	-7395
▁nephro	-7396
▁occult	-7397
Delirium	-7398
Subacute	-7399
antadine	-7400
hydrogen	-7401
ranulocy	-7402
thinking	-7403
▁Iodofol	-7404
▁forearm	-7405
▁jejunal	-7406
Alteplase	-7407
Endometri	-7408
Thromboph	-7409
lavicular	-7410
rebapaite	-7411
ucinazine	-7412
▁Emulsion	-7413
▁Valvular	-7414
▁cachexia	-7415
▁cataract	-7416
▁residual	-7417
Multifocal	-7418
Paroxetine	-7419
Xianteming	-7420
Zoledronic	-7421
cetirizine	-7422
▁Alcoholic	-7423
▁antitoxin	-7424
▁fallopian	-7425
▁infective	-7426
Hemorrhoids	-7427
Norfloxacin	-7428
Transrectal	-7429
oracolumbar	-7430
risperidone	-7431
xamethasone	-7432
▁Hemiplegia	-7433
▁Paraplegia	-7434
▁cerebellar	-7435
Methotrexate	-7436
Osteopeptide	-7437
Pancytopenia	-7438
Pyrazinamide	-7439
▁arthropathy	-7440
Determination	-7441
carbamazepine	-7442
ranulocytosis	-7443
▁lymphangitis	-7444
conjunctivitis	-7445
▁Hyperchloremia	-7446
Thrombophlebitis	-7447
▁nephrolithiasis	-7448
Ou	-7449
Pu	-7450
SA	-7451
TG	-7452
All	-7453
Rox	-7454
Shi	-7455
Zuo	-7456
iii	-7457
miv	-7458
osa	-7459
ser	-7460
yan	-7461
▁ab	-7462
▁ju	-7463
Deep	-7464
Like	-7465
Ouyi	-7466
Sere	-7467
Test	-7468
asta	-7469
cult	-7470
pine	-7471
song	-7472
stab	-7473
▁32#	-7474
▁Con	-7475
▁Dep	-7476
▁Luo	-7477
▁Par	-7478
▁Thy	-7479
▁bov	-7480
▁der	-7481
Bella	-7482
Polio	-7483
alcoh	-7484
caine	-7485
iatic	-7486
mivud	-7487
tting	-7488
virin	-7489
Injury	-7490
etosis	-7491
intrac	-7492
minant	-7493
onatal	-7494
▁Hepat	-7495
▁Lymph	-7496
▁first	-7497
▁juice	-7498
▁paste	-7499
▁sweep	-7500
Auricle	-7501
Flatten	-7502
Likejun	-7503
Orbital	-7504
Roxasta	-7505
Ruixian	-7506
lateral	-7507
yelosup	-7508
▁Baoxin	-7509
▁Middle	-7510
▁bovine	-7511
▁cardia	-7512
▁lesion	-7513
Adhesive	-7514
Seretide	-7515
Shensong	-7516
buprofen	-7517
lyceride	-7518
mivudine	-7519
riluzole	-7520
valvular	-7521
▁Colonic	-7522
▁Yangxin	-7523
Bellazole	-7524
Endocrine	-7525
Epistaxis	-7526
iferative	-7527
reatinine	-7528
▁Volvulus	-7529
▁barbital	-7530
▁clotting	-7531
Membranous	-7532
Neuropathy	-7533
lactatemia	-7534
sertraline	-7535
▁Essential	-7536
▁Parkinson	-7537
Unspecified	-7538
hypotension	-7539
▁Ampicillin	-7540
▁Myocardial	-7541
Chemotherapy	-7542
bicalutamide	-7543
intracardiac	-7544
oencephalitis	-7545
▁Cardiomegaly	-7546
▁Tuberculosis	-7547
Thrombocytosis	-7548
Agranulocytosis	-7549
yelosuppression	-7550
▁Bronchiectasis	-7551
▁Nephroureteral	-7552
Mu	-7553
do	-7554
wu	-7555
0.5	-7556
Nit	-7557
Piv	-7558
TGP	-7559
Ten	-7560
Two	-7561
Zha	-7562
bit	-7563
ini	-7564
ked	-7565
pal	-7566
sel	-7567
Heng	-7568
Imdo	-7569
Much	-7570
Ritu	-7571
ansh	-7572
body	-7573
cele	-7574
desh	-7575
inyl	-7576
osal	-7577
ossa	-7578
oxue	-7579
tian	-7580
utan	-7581
weil	-7582
▁Sup	-7583
▁[50	-7584
▁ves	-7585
Cisum	-7586
Jinwu	-7587
Pivid	-7588
Zhach	-7589
lonic	-7590
lower	-7591
mural	-7592
rigin	-7593
uohua	-7594
yelin	-7595
▁(0.5	-7596
▁Drug	-7597
▁face	-7598
▁gout	-7599
▁than	-7600
Keding	-7601
Pravis	-7602
Qijiao	-7603
Shuang	-7604
ainten	-7605
ariant	-7606
famine	-7607
ianwei	-7608
ilical	-7609
lactic	-7610
nomide	-7611
ocytes	-7612
olving	-7613
trophy	-7614
▁0.915	-7615
▁Hilar	-7616
▁fossa	-7617
▁ileal	-7618
▁motor	-7619
▁tonic	-7620
Daparin	-7621
Kalinyl	-7622
Pemphig	-7623
Pyloric	-7624
deshute	-7625
erineal	-7626
pinoxin	-7627
▁alkali	-7628
▁clonic	-7629
▁finger	-7630
▁herpes	-7631
▁origin	-7632
▁strong	-7633
Cisumide	-7634
Frequent	-7635
Inguinal	-7636
Muchutan	-7637
Pividium	-7638
Zhachong	-7639
apillary	-7640
glycemic	-7641
keduohua	-7642
weilitan	-7643
▁Vesical	-7644
▁colitis	-7645
▁dioxide	-7646
▁sarcoma	-7647
Benzhexol	-7648
Capillary	-7649
Pravisone	-7650
Rituximab	-7651
Transient	-7652
▁Frequent	-7653
▁Shengbai	-7654
▁antibody	-7655
▁shianwei	-7656
Lacidipine	-7657
Thrombotic	-7658
aintenance	-7659
Myocarditis	-7660
Nicergoline	-7661
Suppurative	-7662
riglyceride	-7663
▁ultrasound	-7664
Ligustrazine	-7665
Pneumothorax	-7666
Tuberculosis	-7667
reterectasis	-7668
▁Compression	-7669
Hyperlactatemia	-7670
▁hypoproteinemia	-7671
2;	-7672
Au	-7673
CK	-7674
EG	-7675
Ob	-7676
Oz	-7677
pu	-7678
7);	-7679
End	-7680
Gem	-7681
Hip	-7682
Lot	-7683
Nov	-7684
emb	-7685
esa	-7686
ore	-7687
tiz	-7688
tyl	-7689
urr	-7690
xel	-7691
▁4;	-7692
▁Hu	-7693
▁Qi	-7694
Allo	-7695
Brin	-7696
Dian	-7697
Erig	-7698
Gemc	-7699
Loss	-7700
Ozag	-7701
Riba	-7702
Tong	-7703
aria	-7704
atal	-7705
eron	-7706
nous	-7707
ohyd	-7708
▁EEG	-7709
▁Hip	-7710
▁bre	-7711
▁gol	-7712
▁men	-7713
Alcoh	-7714
Devon	-7715
Early	-7716
Getai	-7717
Panan	-7718
Pheny	-7719
Shang	-7720
Xiaot	-7721
Xuesa	-7722
ancao	-7723
astin	-7724
bishu	-7725
capus	-7726
eball	-7727
itory	-7728
purin	-7729
rotiz	-7730
thiou	-7731
▁0.1%	-7732
▁derm	-7733
▁furo	-7734
▁naso	-7735
▁otol	-7736
Apical	-7737
Closed	-7738
Propyl	-7739
aryngo	-7740
entero	-7741
ochrom	-7742
ocular	-7743
ulfide	-7744
urrent	-7745
▁Jiegu	-7746
▁alcoh	-7747
▁ankle	-7748
▁large	-7749
▁pneum	-7750
▁tonsi	-7751
Ozagrel	-7752
Shangke	-7753
coronal	-7754
ocytoma	-7755
purinol	-7756
renatal	-7757
sistant	-7758
uditory	-7759
uralgia	-7760
vernous	-7761
▁brevis	-7762
▁golden	-7763
▁nodule	-7764
Erigeron	-7765
Novolone	-7766
Purulent	-7767
Xiaotong	-7768
atorenal	-7769
carbomer	-7770
cefaclor	-7771
creening	-7772
rotizing	-7773
▁Abscess	-7774
▁Plaster	-7775
▁Qiancao	-7776
▁adenoma	-7777
▁control	-7778
▁furoate	-7779
▁induced	-7780
Auricular	-7781
Dianbishu	-7782
Phenytoin	-7783
Ribavirin	-7784
ecuronium	-7785
glycoside	-7786
▁Ischemic	-7787
▁hypopnea	-7788
▁placenta	-7789
▁variceal	-7790
Lamivudine	-7791
Xuesaitong	-7792
aryngology	-7793
benazepril	-7794
enterology	-7795
thiouracil	-7796
▁neuralgia	-7797
Allopurinol	-7798
Compartment	-7799
Gemcitabine	-7800
Hypertrophy	-7801
Stomatology	-7802
Tetraplegia	-7803
iocarcinoma	-7804
▁Exertional	-7805
▁infections	-7806
Brinzolamide	-7807
Perivalvular	-7808
olelithiasis	-7809
opericardium	-7810
▁Stomatology	-7811
▁Symptomatic	-7812
▁breviscapus	-7813
▁dermatology	-7814
▁pneumatosis	-7815
ochromocytoma	-7816
▁hypofunction	-7817
riglyceridemia	-7818
▁Postoperative	-7819
▁dexamethasone	-7820
Hypopituitarism	-7821
▁Hepatocellular	-7822
▁hypothyroidism	-7823
▁otolaryngology	-7824
Gastroenterology	-7825
Propylthiouracil	-7826
CR	-7827
Ji	-7828
fe	-7829
oo	-7830
pe	-7831
.25	-7832
Boy	-7833
Ero	-7834
Gul	-7835
Hav	-7836
Pac	-7837
Rot	-7838
Sel	-7839
Sol	-7840
Tes	-7841
Ulc	-7842
bao	-7843
kos	-7844
ruc	-7845
Baol	-7846
Flav	-7847
Mean	-7848
Ruyi	-7849
gram	-7850
ogas	-7851
rans	-7852
thal	-7853
ubao	-7854
uloh	-7855
wort	-7856
zema	-7857
▁CTA	-7858
▁Top	-7859
▁leg	-7860
▁low	-7861
▁red	-7862
Beife	-7863
Fresh	-7864
Mouse	-7865
Ruida	-7866
Thigh	-7867
amboo	-7868
arbon	-7869
iezhi	-7870
ineal	-7871
intra	-7872
kosua	-7873
▁6.25	-7874
▁Bile	-7875
▁Thym	-7876
▁Zhen	-7877
▁hype	-7878
▁zymo	-7879
Finger	-7880
Glioma	-7881
Having	-7882
Mening	-7883
Rifaxi	-7884
apenem	-7885
ontine	-7886
orrhea	-7887
physis	-7888
▁Gubao	-7889
▁Local	-7890
▁bulla	-7891
▁fresh	-7892
Boyding	-7893
Erosive	-7894
Rotting	-7895
Solifen	-7896
capuloh	-7897
phenoid	-7898
rubicin	-7899
▁Female	-7900
▁Herpes	-7901
▁Myxoma	-7902
▁active	-7903
▁bamboo	-7904
▁combin	-7905
▁mother	-7906
▁periar	-7907
▁placen	-7908
Aplastic	-7909
Beifeida	-7910
Gangrene	-7911
Guladine	-7912
Prenatal	-7913
Volvulus	-7914
Xianling	-7915
▁Patella	-7916
▁Zhenbao	-7917
▁antigen	-7918
▁epididy	-7919
▁fingers	-7920
▁ketosis	-7921
▁pharyng	-7922
Baoliezhi	-7923
Ibuprofen	-7924
Rifaximin	-7925
Ruidakang	-7926
eclampsia	-7927
gastritis	-7928
iosulfate	-7929
keratitis	-7930
▁Crushing	-7931
▁moderate	-7932
▁tracheal	-7933
▁urethrop	-7934
▁zymogram	-7935
Congestive	-7936
Cystostomy	-7937
Ulcerative	-7938
felodipine	-7939
liferative	-7940
▁Bacterial	-7941
▁hemolytic	-7942
▁keratitis	-7943
▁resistant	-7944
Peritonitis	-7945
Solifenacin	-7946
finasteride	-7947
▁Bucinazine	-7948
▁Concussion	-7949
▁Neurogenic	-7950
▁concussion	-7951
▁containing	-7952
▁hemoglobin	-7953
▁intramural	-7954
▁motherwort	-7955
▁obliterans	-7956
▁osteopathy	-7957
▁rhinorrhea	-7958
Radiotherapy	-7959
▁pharyngitis	-7960
capulohumeral	-7961
▁constrictive	-7962
▁laryngectomy	-7963
▁hyperglycemic	-7964
▁periarthritis	-7965
▁urethroplasty	-7966
Schistosomiasis	-7967
PA	-7968
aw	-7969
hc	-7970
pl	-7971
.75	-7972
025	-7973
Yab	-7974
idi	-7975
kay	-7976
lay	-7977
our	-7978
▁Zh	-7979
Amit	-7980
Behc	-7981
Chan	-7982
Cush	-7983
Desh	-7984
Gast	-7985
Glyc	-7986
Gose	-7987
Neut	-7988
Pule	-7989
Traz	-7990
Trip	-7991
ival	-7992
lari	-7993
lice	-7994
mity	-7995
omit	-7996
orts	-7997
rash	-7998
tigo	-7999
ysta	-8000
zefu	-8001
▁box	-8002
▁deb	-8003
▁sym	-8004
Cough	-8005
Focal	-8006
Tenof	-8007
Vocal	-8008
asses	-8009
atura	-8010
iceal	-8011
iloba	-8012
itine	-8013
nasal	-8014
oprox	-8015
relin	-8016
tarab	-8017
teryg	-8018
undib	-8019
xiang	-8020
▁Coma	-8021
▁Dobe	-8022
▁Kefu	-8023
▁Knee	-8024
▁ring	-8025
Anaphy	-8026
Behcet	-8027
Foscar	-8028
Lotine	-8029
Sports	-8030
Yabosi	-8031
angina	-8032
ascial	-8033
kayasu	-8034
larith	-8035
riptyl	-8036
rophil	-8037
tianma	-8038
ulsive	-8039
ureter	-8040
▁0.025	-8041
▁14.75	-8042
▁Kinin	-8043
▁Radio	-8044
▁Zheng	-8045
▁cysta	-8046
▁defor	-8047
▁phase	-8048
▁slice	-8049
Allison	-8050
Cushing	-8051
empyema	-8052
lastoma	-8053
ogenase	-8054
oproxil	-8055
▁Choled	-8056
▁Methyl	-8057
▁biloba	-8058
▁carbon	-8059
▁distal	-8060
▁masses	-8061
▁median	-8062
▁middle	-8063
▁osteof	-8064
▁vessel	-8065
Asphyxia	-8066
Cachexia	-8067
Deshumab	-8068
Leukemia	-8069
Muscular	-8070
Placenta	-8071
Quanzefu	-8072
Residual	-8073
Tongbian	-8074
ridement	-8075
stenosis	-8076
tarabine	-8077
▁Clucose	-8078
▁Ischial	-8079
▁Killipi	-8080
▁Primary	-8081
▁Supposi	-8082
▁Thyroid	-8083
▁Zhitong	-8084
▁plateau	-8085
▁tonsill	-8086
Foscarnet	-8087
Goserelin	-8088
Tenofovir	-8089
Trazodone	-8090
aturation	-8091
donepezil	-8092
orderline	-8093
pendiceal	-8094
riptyline	-8095
undibulum	-8096
▁cystaden	-8097
▁tramadol	-8098
Chanfukang	-8099
Hemangioma	-8100
Hemiplegia	-8101
Neutrophil	-8102
Postpartum	-8103
Quantianma	-8104
Vecuronium	-8105
calcitonin	-8106
centration	-8107
pharyngeal	-8108
tacrolimus	-8109
▁Cavernous	-8110
▁Methylate	-8111
▁Papillary	-8112
▁arteritis	-8113
▁deformity	-8114
▁monocytes	-8115
▁symphysis	-8116
Esophagitis	-8117
▁Dobesilate	-8118
▁Hemothorax	-8119
▁Incomplete	-8120
▁disoproxil	-8121
Encapsulated	-8122
Incarcerated	-8123
Tongbianling	-8124
▁compartment	-8125
▁debridement	-8126
Acinetobacter	-8127
Amitriptyline	-8128
Diaphragmatic	-8129
intramuscular	-8130
larithromycin	-8131
▁Chemotherapy	-8132
▁Kininogenase	-8133
▁Radiotherapy	-8134
▁infundibulum	-8135
▁osteofascial	-8136
Scapulohumeral	-8137
▁Acinetobacter	-8138
▁Suppositories	-8139
▁concentration	-8140
▁hemopericardium	-8141
31	-8142
9-	-8143
Lu	-8144
Bip	-8145
Dem	-8146
Dro	-8147
Hyp	-8148
Nim	-8149
Rac	-8150
Seg	-8151
Xue	-8152
acy	-8153
asm	-8154
bei	-8155
bus	-8156
gal	-8157
hol	-8158
iru	-8159
ket	-8160
lot	-8161
odi	-8162
via	-8163
▁<5	-8164
▁ey	-8165
Deer	-8166
Jing	-8167
Limb	-8168
Pacl	-8169
Para	-8170
Sulf	-8171
eign	-8172
idth	-8173
irus	-8174
leal	-8175
ound	-8176
pler	-8177
▁Dil	-8178
▁Dop	-8179
▁Lip	-8180
▁Sig	-8181
▁coc	-8182
▁rac	-8183
Astra	-8184
Ciclo	-8185
Gouty	-8186
Leflu	-8187
Luodi	-8188
Puera	-8189
Segun	-8190
andid	-8191
fovir	-8192
galus	-8193
locar	-8194
rated	-8195
shufu	-8196
tribu	-8197
umber	-8198
uoyin	-8199
urtic	-8200
yloid	-8201
▁Anti	-8202
▁Phen	-8203
▁abor	-8204
▁four	-8205
▁full	-8206
▁more	-8207
Liping	-8208
Occult	-8209
Rabbit	-8210
Xiaoxi	-8211
iastin	-8212
itaxel	-8213
liptin	-8214
silmin	-8215
uption	-8216
▁Hemop	-8217
▁Ileal	-8218
▁Inter	-8219
▁Wrist	-8220
▁glyce	-8221
▁local	-8222
▁multi	-8223
▁virus	-8224
▁width	-8225
Bipolar	-8226
Cholang	-8227
Dicyclo	-8228
Erythro	-8229
Gliquid	-8230
Vesical	-8231
albumin	-8232
busenol	-8233
mianshu	-8234
torrhea	-8235
urinary	-8236
▁Anemia	-8237
▁Common	-8238
▁atrium	-8239
▁bullae	-8240
▁number	-8241
▁previa	-8242
▁racket	-8243
Demyelin	-8244
Drowning	-8245
Endocrin	-8246
Fansheng	-8247
Ketamine	-8248
Perineal	-8249
Puerarin	-8250
Scapular	-8251
Takayasu	-8252
seudoeph	-8253
shoulder	-8254
toiditis	-8255
▁Dilated	-8256
▁Doppler	-8257
▁Iohexol	-8258
▁Lateral	-8259
▁Ophthal	-8260
▁mixture	-8261
▁stromal	-8262
▁styloid	-8263
Jinguoyin	-8264
Localized	-8265
Shuangbei	-8266
celerated	-8267
locarpine	-8268
ostenosis	-8269
tribution	-8270
urticaria	-8271
▁Lymphoma	-8272
▁abortion	-8273
▁adenosis	-8274
▁caproate	-8275
▁glycerop	-8276
Astragalus	-8277
Connective	-8278
Dicyclohol	-8279
Gliquidone	-8280
Hemothorax	-8281
Meningioma	-8282
Paclitaxel	-8283
amantadine	-8284
yophilized	-8285
▁Localized	-8286
▁Screening	-8287
▁Thymocyte	-8288
▁occipital	-8289
▁placental	-8290
Ciclosporin	-8291
Generalized	-8292
Hydroureter	-8293
Leflunomide	-8294
Nimergoline	-8295
Tachycardia	-8296
fenofibrate	-8297
▁Ophthalmic	-8298
▁excitation	-8299
▁saturation	-8300
raclavicular	-8301
▁Electrolyte	-8302
▁Hematemesis	-8303
▁cystadenoma	-8304
▁polypeptide	-8305
Demyelinating	-8306
Endocrinology	-8307
Fanshengshufu	-8308
Ureterectasis	-8309
mycophenolate	-8310
▁Rheumatology	-8311
▁distribution	-8312
▁rheumatology	-8313
Racanisodamine	-8314
seudoephedrine	-8315
▁Phenobarbital	-8316
▁osteomyelitis	-8317
▁perforationof	-8318
▁Hemoperitoneum	-8319
▁Immunoglobulin	-8320
▁conjunctivitis	-8321
Hypophosphatemia	-8322
▁hyperthyroidism	-8323
.2	-8324
Ab	-8325
IV	-8326
Xi	-8327
ux	-8328
.56	-8329
2):	-8330
Der	-8331
Dod	-8332
Gen	-8333
Hui	-8334
IVF	-8335
Imm	-8336
Mes	-8337
Mig	-8338
Obt	-8339
Vin	-8340
alg	-8341
arl	-8342
dii	-8343
nia	-8344
nic	-8345
odu	-8346
oem	-8347
oly	-8348
que	-8349
val	-8350
xed	-8351
yib	-8352
yph	-8353
▁(4	-8354
▁69	-8355
▁Ph	-8356
Bail	-8357
Calf	-8358
Daji	-8359
Eyel	-8360
Fond	-8361
Leti	-8362
Lixu	-8363
Xike	-8364
amil	-8365
asur	-8366
avig	-8367
deaf	-8368
ebao	-8369
erug	-8370
face	-8371
odal	-8372
onas	-8373
poly	-8374
remi	-8375
risy	-8376
role	-8377
rosm	-8378
scar	-8379
uben	-8380
▁(50	-8381
▁4.2	-8382
▁42#	-8383
▁IIA	-8384
▁jaw	-8385
▁mig	-8386
▁pos	-8387
▁rem	-8388
▁wil	-8389
Dodec	-8390
Heats	-8391
Huier	-8392
Kezhi	-8393
Pearl	-8394
Relin	-8395
axine	-8396
inone	-8397
inosa	-8398
notic	-8399
phyte	-8400
▁1250	-8401
▁22.5	-8402
▁6000	-8403
▁7.5%	-8404
▁Oste	-8405
▁anom	-8406
▁axis	-8407
▁leuk	-8408
▁meta	-8409
▁mild	-8410
▁pleu	-8411
▁plus	-8412
▁quan	-8413
▁rash	-8414
▁slow	-8415
▁toes	-8416
Cholec	-8417
Danshu	-8418
Eyelid	-8419
Gentam	-8420
Huoxue	-8421
Immedi	-8422
Kangai	-8423
Niaodu	-8424
Norton	-8425
Obtura	-8426
Thymic	-8427
Venlaf	-8428
Vindes	-8429
besity	-8430
bolism	-8431
ciatic	-8432
eishen	-8433
fordii	-8434
itinib	-8435
ovitis	-8436
posure	-8437
prosta	-8438
tremor	-8439
trexed	-8440
ycosis	-8441
▁(4:1)	-8442
▁69.56	-8443
▁Edema	-8444
▁Gouty	-8445
▁Tetra	-8446
▁aerug	-8447
▁analg	-8448
▁cleft	-8449
▁death	-8450
▁fasci	-8451
▁fixed	-8452
▁navig	-8453
▁oxide	-8454
▁tansh	-8455
Hepatol	-8456
Vaginal	-8457
esophag	-8458
iniment	-8459
lobular	-8460
rolemia	-8461
sequela	-8462
yphosis	-8463
▁measur	-8464
▁reflux	-8465
▁thymus	-8466
▁trauma	-8467
Bronchop	-8468
Crushing	-8469
Hengkang	-8470
Lixuebao	-8471
aparinux	-8472
choleste	-8473
remiuron	-8474
rosmolar	-8475
terygium	-8476
thalidol	-8477
ubenimex	-8478
▁Biliary	-8479
▁Pseudom	-8480
▁digital	-8481
▁empyema	-8482
▁eyeball	-8483
▁quantif	-8484
▁surface	-8485
Dodecanol	-8486
Huganning	-8487
Immediate	-8488
Nutrition	-8489
Obturator	-8490
Praprofen	-8491
Radiation	-8492
Relinqing	-8493
Vindesine	-8494
oembolism	-8495
osphatide	-8496
yibeishen	-8497
▁duodenal	-8498
▁neonatal	-8499
▁pleurisy	-8500
Epirubicin	-8501
Heatstroke	-8502
Letitrexed	-8503
Niaoduqing	-8504
Pemphigoid	-8505
Phosphorus	-8506
ecrotizing	-8507
esophageal	-8508
pendicitis	-8509
rogressive	-8510
▁Contusion	-8511
▁Premature	-8512
▁Zhengqing	-8513
▁analgesic	-8514
▁coagulase	-8515
▁dystrophy	-8516
▁fasciitis	-8517
▁wilfordii	-8518
Hematemesis	-8519
Hepatorenal	-8520
Nutritional	-8521
Venlafaxine	-8522
prostatitis	-8523
▁aeruginosa	-8524
▁contusions	-8525
▁dissolving	-8526
▁navigation	-8527
▁postpartum	-8528
▁tanshinone	-8529
Fondaparinux	-8530
Nontraumatic	-8531
Tripterygium	-8532
valaciclovir	-8533
▁Cholestasis	-8534
▁Enhancement	-8535
▁Gallbladder	-8536
▁measurement	-8537
asopharyngeal	-8538
▁Interstitial	-8539
▁hyperosmolar	-8540
Clarithromycin	-8541
▁Hyperuricemia	-8542
▁polyglycoside	-8543
▁tonsillectomy	-8544
Iodophosphatide	-8545
cholesterolemia	-8546
▁Hypothyroidism	-8547
▁quantification	-8548
▁supraclavicular	-8549
▁thromboembolism	-8550
.8	-8551
14	-8552
co	-8553
dd	-8554
du	-8555
Hel	-8556
Map	-8557
Olm	-8558
Ony	-8559
Ors	-8560
PSA	-8561
hua	-8562
hui	-8563
ins	-8564
ony	-8565
phe	-8566
sus	-8567
uer	-8568
▁5#	-8569
▁Le	-8570
▁Su	-8571
▁sc	-8572
12):	-8573
Actu	-8574
Apra	-8575
Cata	-8576
Jiem	-8577
Olig	-8578
Shou	-8579
Yang	-8580
ache	-8581
aran	-8582
ased	-8583
chom	-8584
cyte	-8585
efac	-8586
etus	-8587
glot	-8588
iate	-8589
idar	-8590
omil	-8591
otra	-8592
oxia	-8593
plan	-8594
roto	-8595
shur	-8596
sput	-8597
sull	-8598
tang	-8599
thin	-8600
uran	-8601
yrup	-8602
ythm	-8603
▁8.8	-8604
▁Cal	-8605
▁Jiu	-8606
▁abr	-8607
▁bac	-8608
▁den	-8609
▁ech	-8610
▁pip	-8611
▁sen	-8612
▁sol	-8613
▁tor	-8614
Helic	-8615
Laish	-8616
Quick	-8617
Regan	-8618
Selen	-8619
Silib	-8620
Super	-8621
Ulnar	-8622
brain	-8623
chest	-8624
ifene	-8625
insom	-8626
isode	-8627
occal	-8628
olute	-8629
petic	-8630
ranon	-8631
tumor	-8632
ylori	-8633
▁Bone	-8634
▁Calc	-8635
▁Peri	-8636
▁lens	-8637
▁liqu	-8638
▁poor	-8639
▁rise	-8640
▁tear	-8641
Actual	-8642
BeiXue	-8643
Cispla	-8644
Glycos	-8645
Herpes	-8646
Nitrof	-8647
Refrac	-8648
active	-8649
atelet	-8650
atinib	-8651
eption	-8652
ocardi	-8653
ositis	-8654
oxomil	-8655
planar	-8656
prolol	-8657
ronate	-8658
shurda	-8659
sputum	-8660
▁Cyclo	-8661
▁Depot	-8662
▁Huida	-8663
▁Nasal	-8664
▁atony	-8665
▁delay	-8666
▁fatty	-8667
▁fetus	-8668
▁syrup	-8669
Apraxia	-8670
Atrophy	-8671
Flavone	-8672
Foreign	-8673
Jieming	-8674
Maproto	-8675
Onychom	-8676
Posther	-8677
Release	-8678
Shouhui	-8679
Stromal	-8680
andidal	-8681
arthrop	-8682
assemia	-8683
atellar	-8684
creased	-8685
erazide	-8686
icamide	-8687
ingival	-8688
obacter	-8689
plement	-8690
ruciate	-8691
yelitis	-8692
▁Fungal	-8693
▁Jiuxin	-8694
▁Lactob	-8695
▁Signet	-8696
▁Stress	-8697
▁Uremic	-8698
▁acting	-8699
▁energy	-8700
▁flavum	-8701
▁otitis	-8702
▁pylori	-8703
▁rhythm	-8704
Absolute	-8705
Alveolar	-8706
Exposure	-8707
Killipiv	-8708
Laishipu	-8709
Selenium	-8710
Sphenoid	-8711
agliptin	-8712
aranasal	-8713
efaction	-8714
insomnia	-8715
oblastic	-8716
ulminant	-8717
urantoin	-8718
▁Orbital	-8719
▁Ovarian	-8720
▁Pyloric	-8721
▁episode	-8722
▁jejunum	-8723
▁sulfide	-8724
▁torsion	-8725
▁tubular	-8726
▁variant	-8727
Cisplatin	-8728
Deviation	-8729
Killipiii	-8730
Silibinin	-8731
embranous	-8732
otracheal	-8733
sullifene	-8734
unctional	-8735
▁Brachial	-8736
▁Dizocine	-8737
▁Purulent	-8738
▁auditory	-8739
▁crushing	-8740
▁cystitis	-8741
▁glycemic	-8742
▁valvular	-8743
Cataprolol	-8744
Collateral	-8745
Cytarabine	-8746
Descending	-8747
Maprotovir	-8748
Olmesartan	-8749
Refractory	-8750
duloxetine	-8751
ebrospinal	-8752
idarubicin	-8753
ticulocyte	-8754
▁Calcaneal	-8755
▁Medoxomil	-8756
▁abruption	-8757
▁brainstem	-8758
▁echocardi	-8759
▁migration	-8760
Endometrial	-8761
Erythrocyte	-8762
Intraocular	-8763
Intraspinal	-8764
Maintenance	-8765
Superficial	-8766
Thalassemia	-8767
arthropathy	-8768
▁Dilatation	-8769
▁Microtumor	-8770
▁Persistent	-8771
▁alcoholism	-8772
▁creatinine	-8773
▁epididymis	-8774
▁ligamentum	-8775
▁piperazide	-8776
▁supplement	-8777
Endocarditis	-8778
Glycosylated	-8779
Helicobacter	-8780
Postherpetic	-8781
escitalopram	-8782
▁multiplanar	-8783
Endometriosis	-8784
Onychomycosis	-8785
Thoracolumbar	-8786
desloratadine	-8787
▁Disseminated	-8788
▁Lactobionate	-8789
▁Malnutrition	-8790
▁Remifentanil	-8791
▁Tromethamine	-8792
▁liquefaction	-8793
▁localization	-8794
Nasopharyngeal	-8795
Nitrofurantoin	-8796
Osteoarthrosis	-8797
▁Hypochloremia	-8798
▁lymphoblastic	-8799
▁thoracolumbar	-8800
Tracheostenosis	-8801
Esophagotracheal	-8802
pheochromocytoma	-8803
▁schistosomiasis	-8804
3;	-8805
Ya	-8806
zi	-8807
0.1	-8808
Bai	-8809
CTU	-8810
Hif	-8811
Kud	-8812
Mob	-8813
Rup	-8814
Umb	-8815
Ver	-8816
Yid	-8817
fil	-8818
fro	-8819
gin	-8820
lao	-8821
osh	-8822
por	-8823
uni	-8824
▁2;	-8825
▁Am	-8826
:0.1	-8827
Aber	-8828
Aden	-8829
Anas	-8830
Conv	-8831
Deaf	-8832
Hong	-8833
Mech	-8834
Pure	-8835
Yahe	-8836
aixi	-8837
iezi	-8838
ific	-8839
ille	-8840
ogai	-8841
opia	-8842
plus	-8843
rant	-8844
uaqi	-8845
unzh	-8846
▁(20	-8847
▁18#	-8848
▁50#	-8849
▁72#	-8850
▁Car	-8851
▁Enc	-8852
▁Epi	-8853
▁bil	-8854
▁dif	-8855
▁ion	-8856
▁umb	-8857
Ankle	-8858
Baish	-8859
Blood	-8860
Bucin	-8861
Diema	-8862
Flail	-8863
Hilar	-8864
Mailu	-8865
Ornin	-8866
Thumb	-8867
alous	-8868
cough	-8869
domes	-8870
ealth	-8871
iscus	-8872
izing	-8873
legia	-8874
mitis	-8875
reech	-8876
rotum	-8877
schen	-8878
sidue	-8879
uloma	-8880
viral	-8881
ylase	-8882
▁1500	-8883
▁Dete	-8884
▁Leuk	-8885
▁Pain	-8886
▁bulb	-8887
▁cold	-8888
▁diar	-8889
▁lipo	-8890
▁rate	-8891
▁situ	-8892
▁stab	-8893
▁thym	-8894
Bromof	-8895
Bucinn	-8896
Carbon	-8897
Hifuni	-8898
Laixin	-8899
Oxygen	-8900
Shiwei	-8901
Staphy	-8902
Yiding	-8903
esheng	-8904
ficile	-8905
irubin	-8906
izumab	-8907
oleste	-8908
senfro	-8909
unzhen	-8910
uritis	-8911
▁Aceta	-8912
▁Fever	-8913
▁Focal	-8914
▁Huaqi	-8915
▁bound	-8916
▁burns	-8917
▁ionic	-8918
▁neuro	-8919
▁solar	-8920
▁wound	-8921
Alcohol	-8922
Analgin	-8923
Cardior	-8924
Dyspnea	-8925
Gastros	-8926
Kudiezi	-8927
Migaixi	-8928
Mobicol	-8929
Pseudom	-8930
Vertigo	-8931
Xikelao	-8932
corilol	-8933
daparin	-8934
ethmoid	-8935
glucose	-8936
mmation	-8937
omiting	-8938
ristine	-8939
▁Faming	-8940
▁Health	-8941
▁Lipoma	-8942
▁Mental	-8943
▁Pineal	-8944
▁bulbar	-8945
▁effect	-8946
▁tonsil	-8947
▁venule	-8948
Aberrant	-8949
Carbohyd	-8950
Cataract	-8951
Hongyuan	-8952
Hypnotic	-8953
Mailuosh	-8954
Monocyte	-8955
Ruptured	-8956
allergic	-8957
domestic	-8958
iastinum	-8959
lexipine	-8960
ogaiquan	-8961
thelioma	-8962
ynovitis	-8963
▁density	-8964
▁greater	-8965
▁poliomy	-8966
▁residue	-8967
▁runzhen	-8968
▁scrotum	-8969
▁surplus	-8970
Baishixin	-8971
Chenxiang	-8972
Hemolytic	-8973
Staphyloc	-8974
Umbilical	-8975
Yidingxin	-8976
ecitabine	-8977
fulminant	-8978
meloxicam	-8979
olesterol	-8980
▁Epilepsy	-8981
▁Tracheal	-8982
▁abnormal	-8983
▁axillary	-8984
▁cruciate	-8985
▁diarrhea	-8986
▁junction	-8987
▁otorrhea	-8988
▁procaine	-8989
Acetabular	-8990
Bromofenac	-8991
Carbapenem	-8992
Convulsive	-8993
Diemailing	-8994
Gentamicin	-8995
Mechanical	-8996
Metastatic	-8997
Organizing	-8998
Testicular	-8999
bifonazole	-9000
creatinine	-9001
junctional	-9002
schenitine	-9003
tiotropium	-9004
▁Alzheimer	-9005
▁Killipiii	-9006
▁Laryngeal	-9007
▁anomalous	-9008
▁bilirubin	-9009
▁classical	-9010
▁difficile	-9011
▁radiation	-9012
▁umbilical	-9013
Appendiceal	-9014
Bucinnazine	-9015
Gastrostomy	-9016
Necrotizing	-9017
cholangitis	-9018
cholestatic	-9019
thymopentin	-9020
▁Acetabular	-9021
▁Depressive	-9022
▁borderline	-9023
▁connective	-9024
▁depression	-9025
▁subclavian	-9026
Carbohydrate	-9027
Encephalitis	-9028
Intrauterine	-9029
Itraconazole	-9030
▁Hypovolemic	-9031
▁Pseudomonas	-9032
▁Thiosulfate	-9033
▁cholesterol	-9034
▁circulation	-9035
▁lipoprotein	-9036
▁mediastinum	-9037
Cholecystitis	-9038
Mailuoshutong	-9039
Osteomyelitis	-9040
▁inflammation	-9041
Cholelithiasis	-9042
Hepatocellular	-9043
Hypopharyngeal	-9044
Intrapulmonary	-9045
▁hyperuricemia	-9046
▁poliomyelitis	-9047
▁bronchiectasis	-9048
Bronchopneumonia	-9049
Myelosuppression	-9050
3)	-9051
35	-9052
DI	-9053
MO	-9054
Tu	-9055
-19	-9056
125	-9057
DIS	-9058
Dac	-9059
Edd	-9060
Elo	-9061
Iso	-9062
Key	-9063
Kou	-9064
Mom	-9065
Pso	-9066
Red	-9067
Sig	-9068
Svi	-9069
Tor	-9070
but	-9071
cyx	-9072
dac	-9073
hep	-9074
ids	-9075
ino	-9076
oda	-9077
oic	-9078
shi	-9079
uda	-9080
ulv	-9081
▁(+	-9082
▁AD	-9083
▁wh	-9084
.935	-9085
12);	-9086
CRPA	-9087
Cetu	-9088
Cime	-9089
Elou	-9090
Feng	-9091
Fluo	-9092
Gran	-9093
Kaiw	-9094
Pain	-9095
Scan	-9096
Subc	-9097
Tube	-9098
amph	-9099
anal	-9100
ants	-9101
argy	-9102
cape	-9103
cont	-9104
dena	-9105
ecan	-9106
ente	-9107
eren	-9108
itre	-9109
lind	-9110
live	-9111
lous	-9112
neng	-9113
nios	-9114
oenc	-9115
rend	-9116
susc	-9117
tard	-9118
thol	-9119
trum	-9120
vice	-9121
▁40#	-9122
▁8.4	-9123
▁Dox	-9124
▁PSA	-9125
▁bes	-9126
▁bev	-9127
▁cod	-9128
▁equ	-9129
▁pla	-9130
▁ple	-9131
▁sim	-9132
▁toe	-9133
▁tri	-9134
Azacy	-9135
Daclo	-9136
Eddie	-9137
Edema	-9138
Eosin	-9139
Epend	-9140
Fanji	-9141
Fetal	-9142
Itrop	-9143
Longd	-9144
MODIS	-9145
Mommy	-9146
Oxyme	-9147
Psoas	-9148
Retin	-9149
Runzh	-9150
Silic	-9151
Tubal	-9152
enstr	-9153
erage	-9154
haled	-9155
ility	-9156
laxis	-9157
liver	-9158
peral	-9159
prain	-9160
remor	-9161
tazol	-9162
ulvar	-9163
umors	-9164
varic	-9165
virus	-9166
ycyth	-9167
ymoma	-9168
ystis	-9169
▁Carb	-9170
▁Disc	-9171
▁Mild	-9172
▁Qing	-9173
▁care	-9174
▁diff	-9175
▁dual	-9176
▁hang	-9177
▁love	-9178
▁pseu	-9179
▁soda	-9180
▁trop	-9181
▁vera	-9182
▁weak	-9183
Biogas	-9184
Breech	-9185
Instab	-9186
Isojia	-9187
Kouyan	-9188
Muscle	-9189
Sviram	-9190
Thalid	-9191
alloon	-9192
amphor	-9193
angial	-9194
arcoma	-9195
carpal	-9196
docyst	-9197
eczema	-9198
entong	-9199
lanoma	-9200
mology	-9201
otumor	-9202
penden	-9203
ullous	-9204
xinyan	-9205
▁0.314	-9206
▁7.935	-9207
▁Fibro	-9208
▁Joint	-9209
▁Nodal	-9210
▁Organ	-9211
▁other	-9212
▁pseud	-9213
▁solid	-9214
▁spasm	-9215
Abscess	-9216
Epiglot	-9217
Fengshi	-9218
Inhaled	-9219
Manning	-9220
Nitrend	-9221
Obesity	-9222
Ophthal	-9223
Pneumon	-9224
Pontine	-9225
Sciatic	-9226
Sigmoid	-9227
Sildena	-9228
Syncope	-9229
Tongshu	-9230
Variant	-9231
capsule	-9232
ethargy	-9233
hydroxy	-9234
itreous	-9235
ohydram	-9236
prolone	-9237
ranioph	-9238
tanggan	-9239
thermia	-9240
▁Patent	-9241
▁Qutong	-9242
▁Serous	-9243
▁Trache	-9244
▁Tumors	-9245
▁antrum	-9246
▁coccyx	-9247
▁device	-9248
▁escape	-9249
▁myopia	-9250
▁plaque	-9251
▁pleura	-9252
▁sellar	-9253
▁tremor	-9254
▁valves	-9255
Candidal	-9256
Fanjiefu	-9257
Itropopa	-9258
Keyineng	-9259
Neonatal	-9260
Procaine	-9261
Retinoic	-9262
Runzhong	-9263
enstrual	-9264
ephalomy	-9265
erential	-9266
gangrene	-9267
ogastric	-9268
rography	-9269
tazoline	-9270
urethral	-9271
▁Camphor	-9272
▁Ectopic	-9273
▁balloon	-9274
▁coronal	-9275
▁endomet	-9276
▁hanging	-9277
▁infants	-9278
▁menthol	-9279
▁mucosal	-9280
Cetuximab	-9281
Confusion	-9282
Elouximab	-9283
Enteritis	-9284
Fulminant	-9285
Longditai	-9286
Nephritis	-9287
Paranasal	-9288
Pneumonic	-9289
endronate	-9290
estenosis	-9291
heptidine	-9292
lomerular	-9293
tomatitis	-9294
ventional	-9295
xinyanran	-9296
ycythemia	-9297
▁Electric	-9298
▁Liniment	-9299
▁beverage	-9300
▁calculus	-9301
▁combined	-9302
▁dependen	-9303
▁elective	-9304
▁glaucoma	-9305
▁leukoenc	-9306
▁melanoma	-9307
▁mesilate	-9308
▁monoxide	-9309
▁myelopro	-9310
▁periodic	-9311
▁rhinitis	-9312
▁scanning	-9313
▁weakness	-9314
Alcoholism	-9315
Amantadine	-9316
Cimetidine	-9317
Eosinophil	-9318
Ependymoma	-9319
Epiglottic	-9320
Fluorometh	-9321
Kaiwentong	-9322
Kouyanqing	-9323
Lymphocyte	-9324
Metacarpal	-9325
Osteophyte	-9326
Sildenafil	-9327
calcitriol	-9328
controlled	-9329
obronchial	-9330
resolution	-9331
susception	-9332
▁Ileostomy	-9333
▁cognitive	-9334
▁dysplasia	-9335
▁urticaria	-9336
Accelerated	-9337
Azacytidine	-9338
Hypothermia	-9339
Hypovolemia	-9340
Instability	-9341
Mastoiditis	-9342
Oligohydram	-9343
Progressive	-9344
Proteinuria	-9345
Thalidomide	-9346
enteropathy	-9347
glucosamine	-9348
oclavicular	-9349
pilocarpine	-9350
thyroiditis	-9351
▁Dysarthria	-9352
▁Leukopenia	-9353
▁collateral	-9354
▁filtration	-9355
▁metaplasia	-9356
▁myelopathy	-9357
▁pseudocyst	-9358
Anaphylactic	-9359
Dacloprolone	-9360
Hemarthrosis	-9361
Nitrendipine	-9362
appendicitis	-9363
pericarditis	-9364
▁Doxofylline	-9365
▁Generalized	-9366
▁combination	-9367
▁encephalomy	-9368
▁lymphocytic	-9369
▁maintenance	-9370
▁pseudotumor	-9371
▁spondylotic	-9372
Hypochloremia	-9373
Ophthalmology	-9374
Oxymetazoline	-9375
sterilization	-9376
▁Osteoporosis	-9377
▁Subcutaneous	-9378
▁besmeglumine	-9379
▁differential	-9380
▁hypertensive	-9381
▁replacements	-9382
Hydroxytanggan	-9383
Hyperchloremia	-9384
Staphylococcal	-9385
▁Cerebrospinal	-9386
▁Diaphragmatic	-9387
▁determination	-9388
▁proliferative	-9389
Fluorometholone	-9390
Oligohydramnios	-9391
▁Cholelithiasis	-9392
▁nasopharyngeal	-9393
11	-9394
39	-9395
CE	-9396
ES	-9397
Ig	-9398
SH	-9399
sf	-9400
za	-9401
Ach	-9402
CEA	-9403
Day	-9404
ESU	-9405
Fil	-9406
Hou	-9407
Ile	-9408
Kaz	-9409
Kel	-9410
OPA	-9411
Peg	-9412
Ric	-9413
Sar	-9414
TSH	-9415
Val	-9416
Xip	-9417
ago	-9418
arr	-9419
aza	-9420
bal	-9421
fur	-9422
inj	-9423
oth	-9424
pog	-9425
uim	-9426
vox	-9427
wil	-9428
win	-9429
▁59	-9430
▁Ha	-9431
▁bi	-9432
▁pr	-9433
▁ye	-9434
Derm	-9435
Epid	-9436
Liji	-9437
Ling	-9438
Musk	-9439
Sily	-9440
Trav	-9441
aden	-9442
agit	-9443
angi	-9444
ases	-9445
dden	-9446
fasu	-9447
ious	-9448
isha	-9449
ivox	-9450
like	-9451
lumb	-9452
neph	-9453
omic	-9454
omoh	-9455
onec	-9456
pinx	-9457
roin	-9458
shir	-9459
urns	-9460
uton	-9461
well	-9462
yang	-9463
zaon	-9464
▁350	-9465
▁640	-9466
▁Ade	-9467
▁Amm	-9468
▁Bie	-9469
▁Cas	-9470
▁Eth	-9471
▁Zhi	-9472
▁age	-9473
▁bic	-9474
▁dep	-9475
▁inv	-9476
▁mas	-9477
▁met	-9478
▁mye	-9479
▁phe	-9480
▁sam	-9481
▁tes	-9482
▁ute	-9483
Celet	-9484
Color	-9485
Fluna	-9486
Hasin	-9487
Huife	-9488
Ileoc	-9489
Kazuo	-9490
Large	-9491
Medic	-9492
Peida	-9493
Pyome	-9494
Ricoh	-9495
Thyro	-9496
Ulcer	-9497
Valve	-9498
Xinba	-9499
Xipum	-9500
adrip	-9501
amber	-9502
amily	-9503
cleft	-9504
enous	-9505
erase	-9506
fengh	-9507
illes	-9508
impor	-9509
intus	-9510
onism	-9511
osulf	-9512
romye	-9513
thiop	-9514
trocy	-9515
weish	-9516
▁0.17	-9517
▁Atre	-9518
▁DOPA	-9519
▁Dami	-9520
▁Nini	-9521
▁Post	-9522
▁area	-9523
▁back	-9524
▁deaf	-9525
▁mamm	-9526
▁mute	-9527
▁sper	-9528
▁surg	-9529
▁xiao	-9530
▁zirc	-9531
Actone	-9532
Bailai	-9533
Enlarg	-9534
Ferric	-9535
Fluvox	-9536
Jinyin	-9537
Lipoma	-9538
Normal	-9539
Ocular	-9540
Pannan	-9541
Pernic	-9542
Pineal	-9543
Saizhi	-9544
Salmon	-9545
Sarpog	-9546
Strong	-9547
Sulfur	-9548
Testis	-9549
Tianma	-9550
acular	-9551
aining	-9552
anshen	-9553
arring	-9554
costal	-9555
doster	-9556
eminal	-9557
furuim	-9558
injury	-9559
ivoxil	-9560
meimin	-9561
methim	-9562
oxicef	-9563
relate	-9564
tonine	-9565
transf	-9566
uangan	-9567
wilson	-9568
▁Ankle	-9569
▁Baifu	-9570
▁Pills	-9571
▁Spray	-9572
▁Zhike	-9573
▁auton	-9574
▁blind	-9575
▁hilar	-9576
▁myoma	-9577
▁night	-9578
▁pubic	-9579
▁tetra	-9580
▁utero	-9581
▁value	-9582
▁white	-9583
▁yeast	-9584
Arthral	-9585
Dermato	-9586
Empyema	-9587
Epididy	-9588
Hengjie	-9589
Houzaon	-9590
Kelisha	-9591
Killipi	-9592
Lateral	-9593
Medicon	-9594
Mesosal	-9595
Shenshu	-9596
Silybin	-9597
Suhuang	-9598
Toremif	-9599
adenoma	-9600
agittal	-9601
ciatica	-9602
erineum	-9603
fasudil	-9604
huanggu	-9605
itrogen	-9606
lactoid	-9607
likewei	-9608
lumbago	-9609
minshir	-9610
osulfan	-9611
welling	-9612
▁Aminop	-9613
▁Anaphy	-9614
▁Biejia	-9615
▁Cholec	-9616
▁Entero	-9617
▁Huoxue	-9618
▁Occult	-9619
▁Radial	-9620
▁myelog	-9621
▁organs	-9622
▁palate	-9623
▁sample	-9624
▁sclero	-9625
Acitinib	-9626
Adefovir	-9627
Apatinib	-9628
Auditory	-9629
Enlarged	-9630
Hypooxia	-9631
Lingyang	-9632
Osteonec	-9633
Pancreat	-9634
Pyometra	-9635
Xinbaida	-9636
Xipumiao	-9637
adefovir	-9638
azathiop	-9639
ecurrent	-9640
headache	-9641
ifemoral	-9642
imported	-9643
oplastin	-9644
raoxicef	-9645
romyeloc	-9646
sciatica	-9647
silicate	-9648
urrently	-9649
▁Atresia	-9650
▁Caspine	-9651
▁Danshen	-9652
▁Ethmoid	-9653
▁Ruangan	-9654
▁Youpile	-9655
▁alcohol	-9656
▁amylase	-9657
▁chamber	-9658
▁ectopic	-9659
▁ethmoid	-9660
▁fluores	-9661
▁mammary	-9662
▁prolong	-9663
▁systems	-9664
▁thymoma	-9665
Arteritis	-9666
Hepatolen	-9667
Ileocecal	-9668
Jinyinshu	-9669
Leukocyte	-9670
Monocular	-9671
Pannanjin	-9672
Pegylated	-9673
Pemphigus	-9674
enalapril	-9675
furuiming	-9676
monocytic	-9677
nephritis	-9678
trocytoma	-9679
▁Ammonium	-9680
▁Damikang	-9681
▁Dropping	-9682
▁Killipii	-9683
▁Systemic	-9684
▁Zhuanggu	-9685
▁bicuspid	-9686
▁deafness	-9687
▁interval	-9688
▁meniscus	-9689
▁orthosis	-9690
▁perineum	-9691
▁platelet	-9692
▁surgical	-9693
Arthralgia	-9694
Hasinonide	-9695
Hemoptysis	-9696
Huifeining	-9697
Pernicious	-9698
Shagliptin	-9699
Thrombosis	-9700
Toremifene	-9701
Transverse	-9702
Travoprost	-9703
Vasculitis	-9704
adriplegia	-9705
minshirong	-9706
omoharring	-9707
paroxetine	-9708
vasculitis	-9709
▁Adenosine	-9710
▁Ascending	-9711
▁Phlebitis	-9712
▁autonomic	-9713
▁blindness	-9714
▁currently	-9715
▁dipivoxil	-9716
▁involving	-9717
▁laryngeal	-9718
▁maxillary	-9719
▁spermatic	-9720
▁zirconium	-9721
Carbosulfan	-9722
Flunarizine	-9723
Fluvoxamine	-9724
Hyperplasia	-9725
Lyophilized	-9726
Mesosalpinx	-9727
dosteronism	-9728
fenghaineng	-9729
generalized	-9730
methimazole	-9731
nephropathy	-9732
transferase	-9733
▁Calcitonin	-9734
▁Carbapenem	-9735
▁Cellulitis	-9736
▁depressive	-9737
▁incomplete	-9738
▁testicular	-9739
Constrictive	-9740
Conventional	-9741
Leukocytosis	-9742
Lingyangjiao	-9743
Sarpogrelate	-9744
Shengxuening	-9745
azathioprine	-9746
▁Epithelioma	-9747
▁Lyophilized	-9748
▁Tetraplegia	-9749
▁myelogenous	-9750
▁prostatitis	-9751
▁scleroderma	-9752
▁thiosulfate	-9753
Hypercalcemia	-9754
Osteonecrosis	-9755
Shenshuaining	-9756
▁Aminopeptide	-9757
▁Atlantoaxial	-9758
▁Encephalitis	-9759
▁Hypocalcemia	-9760
▁Hypoglycemia	-9761
▁disseminated	-9762
▁hexafluoride	-9763
▁methotrexate	-9764
▁microbubbles	-9765
▁prolongation	-9766
▁reticulocyte	-9767
Houzaoniuhuang	-9768
▁cyclosilicate	-9769
Pseudoephedrine	-9770
intussusception	-9771
▁Cyclophosphate	-9772
▁metoclopramide	-9773
▁myelomonocytic	-9774
▁pseudoaneurysm	-9775
▁thromboplastin	-9776
Gastroesophageal	-9777
Hepatolenticular	-9778
Pseudomembranous	-9779
omoharringtonine	-9780
▁Hyperthyroidism	-9781
▁Hypopituitarism	-9782
▁esophagogastric	-9783
▁pseudoephedrine	-9784
0%	-9785
27	-9786
6/	-9787
7/	-9788
EI	-9789
HU	-9790
IZ	-9791
NA	-9792
Pi	-9793
Pl	-9794
RK	-9795
Sy	-9796
cd	-9797
eg	-9798
hs	-9799
11/	-9800
20%	-9801
3):	-9802
And	-9803
Asp	-9804
Bas	-9805
Dob	-9806
Far	-9807
Fux	-9808
Gab	-9809
HUW	-9810
Hai	-9811
Ide	-9812
IgA	-9813
Jiz	-9814
Kaw	-9815
LIZ	-9816
Lig	-9817
Mat	-9818
Mit	-9819
Pin	-9820
SRK	-9821
Unc	-9822
Vag	-9823
Vis	-9824
Wer	-9825
Whe	-9826
Yix	-9827
ada	-9828
aki	-9829
ata	-9830
eat	-9831
elt	-9832
fib	-9833
gra	-9834
key	-9835
med	-9836
mpo	-9837
myc	-9838
nel	-9839
oon	-9840
osp	-9841
par	-9842
pos	-9843
pre	-9844
rec	-9845
ses	-9846
ves	-9847
von	-9848
▁Ar	-9849
▁Pt	-9850
▁Sc	-9851
▁To	-9852
▁om	-9853
▁un	-9854
Acon	-9855
Acro	-9856
Anti	-9857
Berb	-9858
Bruc	-9859
Cedi	-9860
Ceph	-9861
Degu	-9862
Dyst	-9863
Epsi	-9864
Fula	-9865
Gram	-9866
Lian	-9867
Liyu	-9868
Pedi	-9869
Qiye	-9870
Self	-9871
Sili	-9872
Taid	-9873
Twin	-9874
Vasc	-9875
Xiao	-9876
Yixu	-9877
ages	-9878
avan	-9879
baud	-9880
cein	-9881
cent	-9882
dabe	-9883
doma	-9884
dont	-9885
eien	-9886
ellu	-9887
erve	-9888
form	-9889
haus	-9890
imal	-9891
ipid	-9892
isob	-9893
itol	-9894
lasm	-9895
lial	-9896
luoh	-9897
mula	-9898
obar	-9899
ocks	-9900
odys	-9901
omia	-9902
onse	-9903
opla	-9904
ovid	-9905
pera	-9906
rial	-9907
rink	-9908
siti	-9909
sori	-9910
tach	-9911
tase	-9912
teal	-9913
tern	-9914
tice	-9915
usal	-9916
utyl	-9917
▁Mas	-9918
▁Non	-9919
▁Tes	-9920
▁Zhu	-9921
▁amp	-9922
▁aro	-9923
▁deh	-9924
▁dur	-9925
▁end	-9926
▁gap	-9927
▁hyd	-9928
▁jin	-9929
▁sto	-9930
Adult	-9931
Allan	-9932
Anion	-9933
Apnea	-9934
Chino	-9935
Cytom	-9936
Derma	-9937
Dobbs	-9938
Dydro	-9939
Fasci	-9940
Grand	-9941
HUWEI	-9942
Huang	-9943
Jiash	-9944
Jizhi	-9945
Kawas	-9946
Misop	-9947
Obses	-9948
Paras	-9949
Pseud	-9950
Radio	-9951
Smear	-9952
Vague	-9953
Visce	-9954
Wheat	-9955
acros	-9956
allia	-9957
atlas	-9958
atric	-9959
cence	-9960
dacon	-9961
egalo	-9962
entum	-9963
henyl	-9964
ickle	-9965
jieya	-9966
leflu	-9967
nicke	-9968
nitus	-9969
ochem	-9970
odide	-9971
oning	-9972
oraco	-9973
osahs	-9974
oxate	-9975
perin	-9976
phric	-9977
pitin	-9978
ribit	-9979
roxyp	-9980
tocks	-9981
total	-9982
toxic	-9983
trane	-9984
uerpe	-9985
ulosa	-9986
vomit	-9987
ximal	-9988
zheng	-9989
▁(2%)	-9990
▁0.32	-9991
▁Deli	-9992
▁Epid	-9993
▁Heat	-9994
▁Puer	-9995
▁Reck	-9996
▁Suhe	-9997
▁belt	-9998
▁chor	-9999
▁conn	-10000
▁cush	-10001
▁diag	-10002
▁flex	-10003
▁hide	-10004
▁memb	-10005
▁nose	-10006
▁olec	-10007
▁para	-10008
▁prac	-10009
▁prox	-10010
▁resp	-10011
▁scar	-10012
▁sedi	-10013
▁upon	-10014
Beixin	-10015
Brucea	-10016
Carpal	-10017
Donkey	-10018
Dydrog	-10019
Fluvis	-10020
Fuxidi	-10021
Ideben	-10022
Mitoch	-10023
Propor	-10024
Serous	-10025
Taidao	-10026
Vascul	-10027
arinii	-10028
astine	-10029
benzen	-10030
biotic	-10031
centic	-10032
erimpo	-10033
flumin	-10034
graves	-10035
hanced	-10036
hausen	-10037
luohan	-10038
menopa	-10039
myasth	-10040
olipid	-10041
ovirus	-10042
rebaud	-10043
recent	-10044
riform	-10045
rinoma	-10046
rostol	-10047
rugada	-10048
seudoe	-10049
ullary	-10050
yunnan	-10051
▁25000	-10052
▁Beien	-10053
▁Color	-10054
▁Endoc	-10055
▁Thigh	-10056
▁Ulnar	-10057
▁Vesic	-10058
▁atlas	-10059
▁axial	-10060
▁cecal	-10061
▁cellu	-10062
▁defib	-10063
▁drink	-10064
▁infor	-10065
▁inver	-10066
▁javan	-10067
▁oroph	-10068
▁shunt	-10069
▁steal	-10070
▁total	-10071
▁tubes	-10072
Anastro	-10073
Andolin	-10074
Epsilon	-10075
Eyeball	-10076
Farneng	-10077
Fasciol	-10078
Fluores	-10079
Fulaidi	-10080
Gastrop	-10081
General	-10082
Huangqi	-10083
Jiashan	-10084
Lianhua	-10085
Matrine	-10086
Nonspec	-10087
Plastic	-10088
Retinal	-10089
Silihua	-10090
Thoraco	-10091
Timolol	-10092
Xueshan	-10093
acytoma	-10094
afacalc	-10095
amilial	-10096
anglian	-10097
aphasia	-10098
bacteri	-10099
benzene	-10100
ectious	-10101
esculin	-10102
kalemic	-10103
longata	-10104
ogenous	-10105
ondrial	-10106
oplasma	-10107
sarcoma	-10108
tempera	-10109
thelial	-10110
utylene	-10111
vertigo	-10112
▁Carpal	-10113
▁Finger	-10114
▁Gastro	-10115
▁Lactic	-10116
▁Ocular	-10117
▁Pallia	-10118
▁Shenan	-10119
▁Thymic	-10120
▁antral	-10121
▁around	-10122
▁baiyao	-10123
▁benign	-10124
▁bronch	-10125
▁cocoon	-10126
▁during	-10127
▁equina	-10128
▁methyl	-10129
▁nature	-10130
▁phenyl	-10131
▁plates	-10132
▁puerpe	-10133
▁recent	-10134
▁region	-10135
▁sickle	-10136
Adhesion	-10137
Bailishu	-10138
Basophil	-10139
Blastoma	-10140
Cranioph	-10141
Gingival	-10142
Haijieya	-10143
Hepatide	-10144
Kawasaki	-10145
LIZHUWEI	-10146
Lethargy	-10147
Nitrogen	-10148
Patellar	-10149
Perianal	-10150
Platelet	-10151
Shuanghu	-10152
Syphilis	-10153
Tuberous	-10154
Visceral	-10155
Wernicke	-10156
aciation	-10157
aminases	-10158
butyrate	-10159
daconine	-10160
eratosis	-10161
erculoma	-10162
lecranon	-10163
losartan	-10164
medroxyp	-10165
platelet	-10166
polyisob	-10167
proximal	-10168
reactive	-10169
ribitone	-10170
sitivity	-10171
tinnitus	-10172
varicose	-10173
ymphaden	-10174
▁Pneumoc	-10175
▁Pontine	-10176
▁Pseudoe	-10177
▁Qingwen	-10178
▁Sciatic	-10179
▁biochem	-10180
▁carinii	-10181
▁contrac	-10182
▁cushion	-10183
▁effects	-10184
▁formula	-10185
▁hydrate	-10186
▁medulla	-10187
▁mustard	-10188
▁omentum	-10189
▁parotid	-10190
▁phospha	-10191
▁pneumon	-10192
▁sensori	-10193
▁simplex	-10194
Aconitine	-10195
Allantoin	-10196
Aspartate	-10197
Berbamine	-10198
Cediodide	-10199
Dermatomy	-10200
Flavoxate	-10201
Idebenone	-10202
Increased	-10203
Mesangial	-10204
Obsessive	-10205
Pediatric	-10206
Phlebitis	-10207
Shenxiang	-10208
Silicosis	-10209
acrosomia	-10210
aryngioma	-10211
erimposed	-10212
junctival	-10213
oblastoma	-10214
rebaudite	-10215
rescentic	-10216
silicosis	-10217
▁Alveolar	-10218
▁Anterior	-10219
▁Asphyxia	-10220
▁Avulsion	-10221
▁Delirium	-10222
▁Epidural	-10223
▁Gingival	-10224
▁Perineal	-10225
▁Reckling	-10226
▁Shengmai	-10227
▁Swelling	-10228
▁Vitreous	-10229
▁Vomiting	-10230
▁buttocks	-10231
▁chordoma	-10232
▁electric	-10233
▁fibroids	-10234
▁javanica	-10235
▁kyphosis	-10236
▁ligation	-10237
▁neuritis	-10238
▁patellar	-10239
▁practice	-10240
▁proximal	-10241
▁response	-10242
▁sediment	-10243
▁sphenoid	-10244
▁sulfonic	-10245
Adenovirus	-10246
Bucinazine	-10247
Cephradine	-10248
Cytomegalo	-10249
Gabapentin	-10250
Gastrinoma	-10251
Postmenopa	-10252
Proportion	-10253
Restenosis	-10254
Thyrotoxic	-10255
Vasculitic	-10256
Yixuesheng	-10257
dontogenic	-10258
erinephric	-10259
glycosides	-10260
luogaiquan	-10261
meningitis	-10262
myasthenic	-10263
mycoplasma	-10264
ocutaneous	-10265
odystrophy	-10266
opulmonary	-10267
ospholipid	-10268
postpartum	-10269
▁Bilateral	-10270
▁Colostomy	-10271
▁Granulosa	-10272
▁Hydrocele	-10273
▁Posterior	-10274
▁Puerperal	-10275
▁Tetralogy	-10276
▁ampullary	-10277
▁aneurysms	-10278
▁bacterial	-10279
▁cellulose	-10280
▁digitalis	-10281
▁granuloma	-10282
▁hematuria	-10283
▁increased	-10284
▁inversion	-10285
▁jinluohan	-10286
▁oblongata	-10287
▁olecranon	-10288
▁promyeloc	-10289
Alendronate	-10290
Anastrozole	-10291
Cholangioma	-10292
Fluorescein	-10293
Fluvistrane	-10294
Intercostal	-10295
Misoprostol	-10296
Nonspecific	-10297
Parathyroid	-10298
Pilocarpine	-10299
Radioactive	-10300
afacalcitol	-10301
fluminolone	-10302
hemorrhagic	-10303
lasmacytoma	-10304
leflunomide	-10305
munotherapy	-10306
perindopril	-10307
remenstrual	-10308
suppurative	-10309
temperature	-10310
▁Dyskinesia	-10311
▁Infectious	-10312
▁Myasthenia	-10313
▁Palliative	-10314
▁Stomatitis	-10315
▁Ultrasound	-10316
▁appendages	-10317
▁compulsive	-10318
▁connection	-10319
▁dependence	-10320
▁distension	-10321
▁endogenous	-10322
▁oropharynx	-10323
▁puerperium	-10324
Gastroptosis	-10325
concentrated	-10326
encapsulated	-10327
preeclampsia	-10328
▁Bradycardia	-10329
▁Hepatorenal	-10330
▁Mastoiditis	-10331
▁Spontaneous	-10332
▁Tuberculous	-10333
▁abnormality	-10334
▁biochemical	-10335
▁cholestasis	-10336
▁endometrium	-10337
▁fluorescent	-10338
▁information	-10339
▁necrotizing	-10340
▁phosphatase	-10341
▁pneumonitis	-10342
▁sensitivity	-10343
▁tetraplegia	-10344
▁transrectal	-10345
▁tropicamide	-10346
▁tuberculoma	-10347
▁unspecified	-10348
Endobronchial	-10349
Mitochondrial	-10350
Procalcitonin	-10351
Sterilization	-10352
▁Hemarthrosis	-10353
▁Intrahepatic	-10354
▁Phentolamine	-10355
▁Pneumocystis	-10356
▁Tracheostomy	-10357
▁intestinalis	-10358
▁sensorimotor	-10359
▁superimposed	-10360
Dydrogesterone	-10361
Frontotemporal	-10362
Nephroureteral	-10363
Pancreatogenic	-10364
Postmenopausal	-10365
hydroxybenzene	-10366
▁Decompensated	-10367
▁Immunotherapy	-10368
▁Ureterectasis	-10369
▁promyelocytic	-10370
▁transaminases	-10371
Cytomegalovirus	-10372
Dermatomyositis	-10373
Hepatolithiasis	-10374
Shuanghuanglian	-10375
Unconsciousness	-10376
polyisobutylene	-10377
ternoclavicular	-10378
▁Pyelonephritis	-10379
▁Recklinghausen	-10380
▁anticoagulants	-10381
▁phenylbutyrate	-10382
Osteoarthropathy	-10383
Thoracoabdominal	-10384
24	-10385
4-	-10386
5/	-10387
AL	-10388
At	-10389
DS	-10390
El	-10391
Eu	-10392
Kn	-10393
Ku	-10394
PH	-10395
VD	-10396
dv	-10397
1-1	-10398
Anl	-10399
Api	-10400
CRE	-10401
CTA	-10402
Doc	-10403
Eng	-10404
Glu	-10405
Hew	-10406
Mul	-10407
Osi	-10408
Ove	-10409
Ren	-10410
Ton	-10411
Vil	-10412
aol	-10413
ark	-10414
bed	-10415
cis	-10416
com	-10417
deh	-10418
duc	-10419
eic	-10420
exp	-10421
hir	-10422
iol	-10423
lun	-10424
man	-10425
nii	-10426
nor	-10427
oss	-10428
ott	-10429
rou	-10430
tat	-10431
vas	-10432
▁11	-10433
▁31	-10434
▁5.	-10435
▁64	-10436
▁Ap	-10437
▁SD	-10438
▁Ye	-10439
▁ba	-10440
247)	-10441
AIDS	-10442
Aidi	-10443
Alox	-10444
Apix	-10445
Atox	-10446
Calt	-10447
Cori	-10448
Cyan	-10449
Cydi	-10450
Enta	-10451
Epal	-10452
Esti	-10453
Exem	-10454
Flud	-10455
Gais	-10456
Halc	-10457
Irin	-10458
Isth	-10459
Lith	-10460
Neph	-10461
Pira	-10462
Praz	-10463
Tear	-10464
alox	-10465
amom	-10466
anch	-10467
anle	-10468
aphy	-10469
apid	-10470
ared	-10471
asic	-10472
blan	-10473
blas	-10474
crab	-10475
desa	-10476
draw	-10477
gran	-10478
itil	-10479
lear	-10480
leuk	-10481
lixu	-10482
llae	-10483
nant	-10484
naof	-10485
omen	-10486
otai	-10487
phal	-10488
piri	-10489
pyel	-10490
scan	-10491
self	-10492
shen	-10493
stif	-10494
sual	-10495
taly	-10496
teus	-10497
type	-10498
urog	-10499
urun	-10500
weak	-10501
yllo	-10502
zote	-10503
▁(%)	-10504
▁3.6	-10505
▁Ank	-10506
▁Buc	-10507
▁Low	-10508
▁Sch	-10509
▁Tan	-10510
▁Toe	-10511
▁abl	-10512
▁adv	-10513
▁due	-10514
▁fis	-10515
▁gum	-10516
▁sil	-10517
▁und	-10518
Bival	-10519
Burns	-10520
Cauda	-10521
Delay	-10522
Dieli	-10523
Elbow	-10524
Europ	-10525
Forte	-10526
Knife	-10527
Kutai	-10528
Nucle	-10529
Punan	-10530
Renoc	-10531
Sacro	-10532
Sanqi	-10533
Shark	-10534
Shufu	-10535
Unexp	-10536
Urine	-10537
Wound	-10538
aceae	-10539
adiaz	-10540
anced	-10541
ankle	-10542
antel	-10543
bairi	-10544
bedil	-10545
blank	-10546
blast	-10547
dimer	-10548
endoc	-10549
eptid	-10550
fuzhi	-10551
gnant	-10552
inous	-10553
isthe	-10554
jinli	-10555
lique	-10556
myoma	-10557
oangi	-10558
ochal	-10559
plasm	-10560
rimal	-10561
shide	-10562
stiff	-10563
tamyl	-10564
ulate	-10565
ushen	-10566
ystod	-10567
▁150#	-10568
▁Blun	-10569
▁Cyan	-10570
▁Fluo	-10571
▁Have	-10572
▁Loss	-10573
▁Pros	-10574
▁Scle	-10575
▁Sule	-10576
▁Tera	-10577
▁Tong	-10578
▁Twin	-10579
▁Vinc	-10580
▁cata	-10581
▁core	-10582
▁plan	-10583
▁prep	-10584
▁pres	-10585
▁trig	-10586
▁urog	-10587
▁vela	-10588
Anlish	-10589
Anotai	-10590
Biphen	-10591
Carrel	-10592
Doceta	-10593
Endoph	-10594
Flatul	-10595
Halcin	-10596
Heweli	-10597
Highly	-10598
Irinot	-10599
Multis	-10600
Osipin	-10601
Overac	-10602
Polyne	-10603
Ptosis	-10604
Shudan	-10605
Spondy	-10606
Sprain	-10607
Thyrog	-10608
Tonsil	-10609
Tuberc	-10610
airway	-10611
aloxin	-10612
anchun	-10613
angeal	-10614
apidly	-10615
breast	-10616
capone	-10617
common	-10618
drawal	-10619
engtan	-10620
ention	-10621
estane	-10622
family	-10623
hirson	-10624
iculus	-10625
irudin	-10626
lained	-10627
moting	-10628
noread	-10629
ofiber	-10630
ofrequ	-10631
omyoma	-10632
ondylo	-10633
oustic	-10634
polyne	-10635
restat	-10636
rosing	-10637
sudden	-10638
travas	-10639
tropin	-10640
▁5.125	-10641
▁Clear	-10642
▁Cough	-10643
▁Italy	-10644
▁Sleep	-10645
▁Space	-10646
▁Three	-10647
▁Thumb	-10648
▁Vitil	-10649
▁azote	-10650
▁basic	-10651
▁camom	-10652
▁dehis	-10653
▁early	-10654
▁folin	-10655
▁imbal	-10656
▁osteo	-10657
▁penis	-10658
▁sural	-10659
▁tooth	-10660
▁vesti	-10661
▁vocal	-10662
▁women	-10663
1-1247)	-10664
Albumin	-10665
Anastom	-10666
Brugada	-10667
Bullous	-10668
Caltech	-10669
Corixin	-10670
Current	-10671
Delayed	-10672
Fludara	-10673
Isthmus	-10674
Jinlong	-10675
Kaiying	-10676
Lithium	-10677
Parotid	-10678
Proteus	-10679
Quweish	-10680
Xinqing	-10681
YangXin	-10682
Yangwei	-10683
aolibao	-10684
ariasis	-10685
biliary	-10686
bullous	-10687
fuzhier	-10688
iolitis	-10689
macular	-10690
mentous	-10691
odeling	-10692
ortical	-10693
thymoma	-10694
umannii	-10695
yllodes	-10696
▁Breast	-10697
▁Buccal	-10698
▁Eczema	-10699
▁Folate	-10700
▁Hiatal	-10701
▁Injury	-10702
▁Medial	-10703
▁Sedesa	-10704
▁Testis	-10705
▁anaphy	-10706
▁glands	-10707
▁immune	-10708
▁puling	-10709
▁sellae	-10710
▁silver	-10711
▁sprain	-10712
▁vulvar	-10713
Achilles	-10714
Apixaban	-10715
Atoxiban	-10716
Biphenyl	-10717
Chuanwei	-10718
Cyanosis	-10719
European	-10720
Filament	-10721
Glutamyl	-10722
Hematoma	-10723
Imatinib	-10724
Indirect	-10725
Maijinli	-10726
Myelitis	-10727
Prazosin	-10728
Qingnaof	-10729
Renocott	-10730
Terminal	-10731
Tongtian	-10732
Vomiting	-10733
Yixinshu	-10734
acquired	-10735
adiazine	-10736
arginine	-10737
bairitol	-10738
clerotic	-10739
ecanoate	-10740
eptidase	-10741
ischemic	-10742
isthesis	-10743
osterone	-10744
rouracil	-10745
shenSong	-10746
squamous	-10747
tiffness	-10748
▁Adenoma	-10749
▁Auricle	-10750
▁Blunted	-10751
▁Diosmin	-10752
▁Forearm	-10753
▁Jugular	-10754
▁Ketosis	-10755
▁Mucosal	-10756
▁Nitrate	-10757
▁Nodular	-10758
▁Scrotal	-10759
▁Tongshu	-10760
▁Vitamin	-10761
▁anxiety	-10762
▁colonic	-10763
▁diester	-10764
▁fissure	-10765
▁hyperal	-10766
▁massive	-10767
▁neuroma	-10768
▁nodules	-10769
▁oblique	-10770
▁pemphig	-10771
▁remnant	-10772
Cydiodine	-10773
Docetaxel	-10774
Flutamide	-10775
Lymphaden	-10776
Lymphatic	-10777
Mediastin	-10778
Nucleated	-10779
Papillary	-10780
Recurrent	-10781
Rogaiquan	-10782
Spondylol	-10783
Synovitis	-10784
granuloma	-10785
ibuprofen	-10786
kangshide	-10787
lipidemic	-10788
oangiitis	-10789
piribedil	-10790
thalmitis	-10791
▁Chewable	-10792
▁Cyanosis	-10793
▁Gangrene	-10794
▁Glomerul	-10795
▁Hypooxia	-10796
▁Kyphosis	-10797
▁Myelitis	-10798
▁Otorrhea	-10799
▁Teratoma	-10800
▁Vitiligo	-10801
▁ablation	-10802
▁advanced	-10803
▁aplastic	-10804
▁azotemia	-10805
▁camomile	-10806
▁extravas	-10807
▁folinate	-10808
▁headache	-10809
▁lacrimal	-10810
▁liniment	-10811
▁myofiber	-10812
▁nystatin	-10813
▁planning	-10814
▁positive	-10815
▁pregnant	-10816
▁prepared	-10817
Decitabine	-10818
Engliejing	-10819
Entacapone	-10820
Epalrestat	-10821
Epididymal	-10822
Epigastric	-10823
Estimation	-10824
Exemestane	-10825
Flatulence	-10826
Gadolinium	-10827
Gaisanchun	-10828
Glomerular	-10829
Hepatocyte	-10830
Irinotecan	-10831
Laceration	-10832
Overactive	-10833
Quweisheng	-10834
Tuberculum	-10835
cytarabine	-10836
hemoglobin	-10837
iastinitis	-10838
lixuesheng	-10839
ofrequency	-10840
osynovitis	-10841
phalangeal	-10842
urethritis	-10843
▁Bifemoral	-10844
▁Carcinoma	-10845
▁Cirrhosis	-10846
▁Enteritis	-10847
▁Olecranon	-10848
▁Paralysis	-10849
▁Transient	-10850
▁baumannii	-10851
▁bilateral	-10852
▁cataplasm	-10853
▁disulfide	-10854
▁imbalance	-10855
▁lidocaine	-10856
▁phyllodes	-10857
▁presacral	-10858
▁promoting	-10859
▁screening	-10860
▁urography	-10861
Aloxicillin	-10862
Anaphylaxis	-10863
Anastomotic	-10864
Bivalirudin	-10865
Choledochal	-10866
Filamentous	-10867
Fludarabine	-10868
Halcinonide	-10869
Kaiyinganle	-10870
Multisystem	-10871
Pirarubicin	-10872
Unexplained	-10873
Vilagliptin	-10874
dehydration	-10875
ophagocytic	-10876
tracerebral	-10877
▁Ankylosing	-10878
▁Gadolinium	-10879
▁Hemoglobin	-10880
▁Hemoptysis	-10881
▁Hypostatic	-10882
▁Idiopathic	-10883
▁Neuropathy	-10884
▁Rheumatoid	-10885
▁Sclerosing	-10886
▁convulsion	-10887
▁dehiscence	-10888
▁distention	-10889
▁fibroblast	-10890
▁glomerular	-10891
▁metatarsal	-10892
▁pemphigoid	-10893
▁remodeling	-10894
▁trigeminal	-10895
▁vestibular	-10896
▁withdrawal	-10897
Anlishengtan	-10898
Bicalutamide	-10899
Carrelizumab	-10900
Clotrimazole	-10901
Dermatophyte	-10902
Lymphangitis	-10903
Multivitamin	-10904
Nephrography	-10905
Parasagittal	-10906
Polycythemia	-10907
Quadriplegia	-10908
Reticulocyte	-10909
Sulfadiazine	-10910
Testosterone	-10911
bacteriaceae	-10912
polyneuritis	-10913
terlipressin	-10914
ystoduodenal	-10915
▁Coagulation	-10916
▁Compartment	-10917
▁Odontogenic	-10918
▁Vincristine	-10919
▁anaphylaxis	-10920
▁astrocytoma	-10921
▁canaliculus	-10922
▁lacerations	-10923
▁progressive	-10924
▁proteinuria	-10925
▁undecanoate	-10926
▁velamentous	-10927
Mediastinitis	-10928
Qingnaofushen	-10929
Thyroglobulin	-10930
cisatracurium	-10931
dexamethasone	-10932
▁Constrictive	-10933
▁Degenerative	-10934
▁Fluorouracil	-10935
▁Hypertrophic	-10936
▁Lymphangioma	-10937
▁Polycythemia	-10938
▁nephrography	-10939
Polyneuropathy	-10940
pyelonephritis	-10941
▁Anaphylactoid	-10942
▁Calcification	-10943
▁Mediastinitis	-10944
▁Osteomyelitis	-10945
▁abnormalities	-10946
▁extravasation	-10947
▁tracheography	-10948
▁triamcinolone	-10949
Endophthalmitis	-10950
Subtrochanteric	-10951
Thromboangiitis	-10952
gastroenteritis	-10953
shenSongYangXin	-10954
▁Intraoperative	-10955
▁radiofrequency	-10956
▁transpeptidase	-10957
▁Atherosclerosis	-10958
▁Schistosomiasis	-10959
▁interphalangeal	-10960
2-	-10961
3/	-10962
37	-10963
45	-10964
49	-10965
5;	-10966
62	-10967
Ax	-10968
CI	-10969
Cd	-10970
DA	-10971
Dy	-10972
Eb	-10973
FT	-10974
Ho	-10975
IP	-10976
Ni	-10977
Om	-10978
PI	-10979
PO	-10980
TT	-10981
TU	-10982
Xe	-10983
bo	-10984
eo	-10985
fa	-10986
ju	-10987
sk	-10988
ts	-10989
▁x	-10990
112	-10991
12;	-10992
2);	-10993
42-	-10994
45-	-10995
499	-10996
9-9	-10997
Abi	-10998
Alb	-10999
/15	-11000
50)	-11001
71-	-11002
Amo	-11003
Arn	-11004
Bab	-11005
Bep	-11006
Bev	-11007
Cig	-11008
Cin	-11009
Det	-11010
Eps	-11011
Fug	-11012
Gef	-11013
Hab	-11014
IDA	-11015
Jaw	-11016
Jie	-11017
Mer	-11018
Occ	-11019
Pat	-11020
Ple	-11021
RAL	-11022
Reg	-11023
Rui	-11024
Tro	-11025
Wum	-11026
ala	-11027
alx	-11028
aod	-11029
arc	-11030
aro	-11031
bia	-11032
cla	-11033
cup	-11034
dem	-11035
diz	-11036
eso	-11037
eus	-11038
gil	-11039
hic	-11040
ind	-11041
iod	-11042
ipy	-11043
its	-11044
itt	-11045
kes	-11046
myd	-11047
ofe	-11048
old	-11049
ost	-11050
pai	-11051
ply	-11052
rit	-11053
set	-11054
sig	-11055
sit	-11056
sor	-11057
tha	-11058
xyc	-11059
yne	-11060
▁85	-11061
▁AF	-11062
▁CP	-11063
▁Mo	-11064
▁St	-11065
▁UG	-11066
▁er	-11067
▁nk	-11068
▁py	-11069
▁qu	-11070
(50)	-11071
-19,	-11072
-19;	-11073
Alec	-11074
Arip	-11075
Beha	-11076
Conf	-11077
Dipy	-11078
Diss	-11079
Dysu	-11080
Fish	-11081
Fren	-11082
Fush	-11083
Hear	-11084
Hoar	-11085
Horn	-11086
Inos	-11087
Isaz	-11088
Ming	-11089
Myot	-11090
NATU	-11091
Nate	-11092
Norb	-11093
Omaz	-11094
Oxal	-11095
POCT	-11096
Puer	-11097
Scar	-11098
Sele	-11099
-3	-11100
AFP	-11101
Ata	-11102
Men	-11103
Miz	-11104
gli	-11105
pir	-11106
urk	-11107
▁no	-11108
Ancy	-11109
Sino	-11110
Theo	-11111
Tine	-11112
Toph	-11113
Tras	-11114
Unro	-11115
Uric	-11116
abal	-11117
aibi	-11118
aide	-11119
alam	-11120
alat	-11121
alob	-11122
anil	-11123
anwe	-11124
arag	-11125
atig	-11126
atoc	-11127
auro	-11128
band	-11129
base	-11130
chei	-11131
cing	-11132
dams	-11133
ddic	-11134
diol	-11135
drug	-11136
ecin	-11137
eire	-11138
elas	-11139
elin	-11140
enaf	-11141
ench	-11142
eton	-11143
ewly	-11144
falx	-11145
foli	-11146
ging	-11147
high	-11148
iari	-11149
ickw	-11150
icyl	-11151
ilan	-11152
illi	-11153
imab	-11154
ings	-11155
ipla	-11156
lapi	-11157
lena	-11158
loda	-11159
loid	-11160
loor	-11161
meri	-11162
mone	-11163
naso	-11164
neal	-11165
obul	-11166
ofed	-11167
ofin	-11168
olio	-11169
onia	-11170
oval	-11171
rage	-11172
rase	-11173
ruri	-11174
shit	-11175
sych	-11176
taci	-11177
tact	-11178
tita	-11179
tosi	-11180
toth	-11181
troc	-11182
tulo	-11183
tyly	-11184
urum	-11185
uryl	-11186
wang	-11187
wann	-11188
ynch	-11189
▁0.7	-11190
▁12#	-11191
▁48#	-11192
▁Ars	-11193
▁CPM	-11194
▁Cor	-11195
▁DNA	-11196
▁EPI	-11197
▁Ear	-11198
▁Ero	-11199
-4	-11200
Cr	-11201
Dog	-11202
Eto	-11203
tuz	-11204
Chla	-11205
Cryp	-11206
Lira	-11207
Marg	-11208
Sora	-11209
arus	-11210
ened	-11211
omib	-11212
till	-11213
torm	-11214
▁Cap	-11215
▁Cys	-11216
▁Gli	-11217
▁Hyp	-11218
▁IVF	-11219
▁Lei	-11220
▁Mes	-11221
▁Pap	-11222
▁Sel	-11223
▁Sud	-11224
▁Tos	-11225
▁VIP	-11226
▁amm	-11227
▁cal	-11228
▁cho	-11229
▁cru	-11230
▁cub	-11231
▁des	-11232
▁dil	-11233
▁fol	-11234
▁hab	-11235
▁inc	-11236
▁neg	-11237
▁not	-11238
▁one	-11239
▁pes	-11240
▁pus	-11241
▁sac	-11242
▁ver	-11243
▁xen	-11244
-2499	-11245
Abduc	-11246
Abira	-11247
Actin	-11248
Antip	-11249
Baige	-11250
Bevac	-11251
Boric	-11252
Buple	-11253
Caine	-11254
Carba	-11255
Chang	-11256
Coarc	-11257
Covid	-11258
Difen	-11259
Dural	-11260
Duval	-11261
Estra	-11262
Etopo	-11263
Falls	-11264
Fenle	-11265
Fugui	-11266
Groin	-11267
Huoxi	-11268
Hypom	-11269
Infra	-11270
Jiegu	-11271
Jinbo	-11272
Jitai	-11273
Light	-11274
Lobar	-11275
Loten	-11276
Mizol	-11277
Monoc	-11278
Nateg	-11279
Nerve	-11280
Oroph	-11281
Other	-11282
Phimo	-11283
Phren	-11284
Pleom	-11285
Polyp	-11286
Propa	-11287
Sulpi	-11288
Those	-11289
Tinea	-11290
Tooth	-11291
Tophi	-11292
Trota	-11293
Tumor	-11294
Vesic	-11295
Wanle	-11296
White	-11297
Wumei	-11298
Xiaoa	-11299
34	-11300
7;	-11301
*14	-11302
Cli	-11303
Dry	-11304
Eli	-11305
Sev	-11306
Sto	-11307
iva	-11308
yma	-11309
▁Re	-11310
Arep	-11311
Trig	-11312
morb	-11313
rico	-11314
shan	-11315
tren	-11316
▁Ach	-11317
▁Pro	-11318
▁Ref	-11319
▁big	-11320
▁dry	-11321
▁eus	-11322
▁ich	-11323
▁ket	-11324
Kabal	-11325
Melan	-11326
Rivas	-11327
Xuezh	-11328
algia	-11329
aline	-11330
amate	-11331
ammag	-11332
amole	-11333
anmei	-11334
aodan	-11335
atous	-11336
bined	-11337
clage	-11338
copic	-11339
degen	-11340
deine	-11341
ength	-11342
enzae	-11343
forme	-11344
ganic	-11345
idase	-11346
ifeng	-11347
iglot	-11348
istic	-11349
itual	-11350
lobar	-11351
lobul	-11352
lonal	-11353
masse	-11354
mydia	-11355
nosed	-11356
nosis	-11357
occus	-11358
ollis	-11359
onduc	-11360
oprol	-11361
perme	-11362
phlog	-11363
pickw	-11364
proth	-11365
ranes	-11366
romos	-11367
ropan	-11368
rusor	-11369
semia	-11370
spasm	-11371
tanus	-11372
tomas	-11373
train	-11374
trast	-11375
undus	-11376
vents	-11377
verya	-11378
zoled	-11379
▁10.5	-11380
▁15-3	-11381
▁18.5	-11382
▁19-9	-11383
▁72-4	-11384
▁ANCA	-11385
▁Adhe	-11386
▁Alfa	-11387
▁Barr	-11388
▁Cons	-11389
▁Cyst	-11390
▁Haem	-11391
▁Kech	-11392
▁Odon	-11393
▁Qili	-11394
▁Scar	-11395
▁Self	-11396
▁Thal	-11397
▁Thin	-11398
▁Trop	-11399
Ebs	-11400
Orch	-11401
Sulod	-11402
fenib	-11403
thema	-11404
▁abra	-11405
▁ball	-11406
▁beat	-11407
▁blur	-11408
▁coli	-11409
▁coun	-11410
▁exan	-11411
▁ging	-11412
▁glen	-11413
▁guid	-11414
▁hema	-11415
▁hole	-11416
▁hosp	-11417
▁host	-11418
▁late	-11419
▁less	-11420
▁meso	-11421
▁orch	-11422
▁otic	-11423
▁paro	-11424
▁proc	-11425
▁psit	-11426
▁read	-11427
▁risk	-11428
▁tail	-11429
▁tris	-11430
▁twin	-11431
▁vale	-11432
11242-	-11433
Achala	-11434
Acrome	-11435
Acromi	-11436
Albend	-11437
Amauro	-11438
Antiph	-11439
Aripip	-11440
Arnold	-11441
Asthma	-11442
Ataxia	-11443
Behavi	-11444
Cardia	-11445
Change	-11446
Cindil	-11447
Clival	-11448
Confir	-11449
Cortic	-11450
Cystic	-11451
Dental	-11452
Eating	-11453
Elilux	-11454
Epidem	-11455
Family	-11456
Fennel	-11457
French	-11458
Guling	-11459
Horner	-11460
Hyperc	-11461
Immune	-11462
Kangru	-11463
Melena	-11464
Menate	-11465
Micros	-11466
Miguda	-11467
Niacin	-11468
Parane	-11469
Pattin	-11470
Periap	-11471
Perman	-11472
Polyla	-11473
Poract	-11474
Ruitai	-11475
Ruiyin	-11476
Shenqi	-11477
SilPin	-11478
Stokes	-11479
Stroke	-11480
Subcon	-11481
Suppor	-11482
Tianba	-11483
Tortic	-11484
Transp	-11485
Visual	-11486
Vulvar	-11487
Xeloda	-11488
Xiaoer	-11489
Xiaofe	-11490
Zhenju	-11491
alamus	-11492
apical	-11493
atigue	-11494
butyne	-11495
calcin	-11496
caneus	-11497
captop	-11498
dospir	-11499
eptive	-11500
esneng	-11501
giline	-11502
heroin	-11503
hiccup	-11504
hypert	-11505
ickian	-11506
icylic	-11507
ildren	-11508
illoma	-11509
inemia	-11510
jiapai	-11511
lapite	-11512
lostom	-11513
morbid	-11514
nospar	-11515
ofinil	-11516
opalat	-11517
orders	-11518
orphic	-11519
ospasm	-11520
pendix	-11521
ritish	-11522
roidal	-11523
ronine	-11524
seases	-11525
seness	-11526
sigmai	-11527
tangsh	-11528
tensor	-11529
terone	-11530
thromb	-11531
tility	-11532
tioned	-11533
urkitt	-11534
ventil	-11535
xycamp	-11536
yposis	-11537
ziness	-11538
▁(1500	-11539
▁15000	-11540
▁Adams	-11541
▁Ameri	-11542
▁Amylo	-11543
▁Burns	-11544
▁Covid	-11545
▁Crico	-11546
▁Dimer	-11547
▁Feire	-11548
▁Iband	-11549
▁Intra	-11550
▁Lobar	-11551
▁Lynch	-11552
▁Nerve	-11553
▁Newly	-11554
▁Parag	-11555
▁Polio	-11556
▁Still	-11557
▁Surun	-11558
▁Ulcer	-11559
▁abuse	-11560
▁acids	-11561
▁addic	-11562
▁allan	-11563
▁cobal	-11564
▁colic	-11565
▁covid	-11566
▁equal	-11567
▁floor	-11568
▁influ	-11569
▁kaibi	-11570
▁least	-11571
▁mesen	-11572
▁monop	-11573
▁mouth	-11574
▁nutri	-11575
▁onset	-11576
▁polio	-11577
▁prech	-11578
▁psych	-11579
▁radic	-11580
▁rutin	-11581
▁short	-11582
▁sites	-11583
▁stiff	-11584
▁stool	-11585
▁storm	-11586
▁third	-11587
▁thumb	-11588
▁tibia	-11589
▁tubal	-11590
▁varus	-11591
▁vilan	-11592
Actinic	-11593
Amoride	-11594
Amylase	-11595
Aphasia	-11596
Beprost	-11597
Butenaf	-11598
Changtu	-11599
Contact	-11600
Cortico	-11601
Cryptoc	-11602
Delixin	-11603
Dextroc	-11604
Dipyrid	-11605
Dysuria	-11606
Ebstein	-11607
Epstein	-11608
Gelatin	-11609
Hearing	-11610
Hematoc	-11611
Hydrops	-11612
Inosine	-11613
Licunwe	-11614
Liraglu	-11615
Macular	-11616
Megalob	-11617
Merrill	-11618
NATURAL	-11619
Norbond	-11620
Organic	-11621
Phrenic	-11622
Pinoxin	-11623
Polydac	-11624
Qizheng	-11625
Scarred	-11626
Seminal	-11627
Seville	-11628
Sternal	-11629
Subclin	-11630
Telangi	-11631
Tension	-11632
Tongluo	-11633
Tongzhi	-11634
Trastuz	-11635
Triptor	-11636
Yangxin	-11637
Yangxue	-11638
ability	-11639
alcohol	-11640
anilide	-11641
anweida	-11642
aration	-11643
bujiale	-11644
central	-11645
cheitis	-11646
ectasia	-11647
enchyma	-11648
iliitis	-11649
iodothy	-11650
iplatin	-11651
monella	-11652
obulbar	-11653
ogeneic	-11654
ophilia	-11655
oplasia	-11656
oplatin	-11657
orbital	-11658
organic	-11659
partial	-11660
polyene	-11661
racaine	-11662
related	-11663
ronchop	-11664
ruritic	-11665
sterase	-11666
sulfate	-11667
tachian	-11668
tetanus	-11669
thyosis	-11670
trenone	-11671
tulosis	-11672
umptive	-11673
wannoma	-11674
ymptoms	-11675
▁Aceton	-11676
▁Airway	-11677
▁Bixing	-11678
▁Candid	-11679
▁Celiac	-11680
▁Chiari	-11681
▁Conduc	-11682
▁Extran	-11683
▁Eyelid	-11684
▁Goiter	-11685
▁Laryng	-11686
▁Median	-11687
▁Mening	-11688
▁Otitis	-11689
▁Reflux	-11690
▁Shenqi	-11691
▁Stable	-11692
▁Sudden	-11693
▁Threat	-11694
▁airway	-11695
▁cantha	-11696
▁cruris	-11697
▁cuboid	-11698
▁detach	-11699
▁eczema	-11700
▁exfoli	-11701
▁flexor	-11702
▁follow	-11703
▁fundus	-11704
▁gammag	-11705
▁habits	-11706
▁hallux	-11707
▁ketone	-11708
▁length	-11709
▁medial	-11710
▁mental	-11711
▁mucosa	-11712
▁myelin	-11713
▁peptic	-11714
▁pteryg	-11715
▁retard	-11716
▁sacrum	-11717
▁simple	-11718
▁strain	-11719
▁stress	-11720
▁supply	-11721
▁tunnel	-11722
▁valgus	-11723
▁versus	-11724
Abducens	-11725
Arepitan	-11726
Axillary	-11727
Babaodan	-11728
Benhexol	-11729
Combined	-11730
Contrast	-11731
Deafness	-11732
Detrusor	-11733
Diseases	-11734
Dystonia	-11735
Dystonic	-11736
Ebastine	-11737
Enhanced	-11738
Epidemic	-11739
Erythema	-11740
Familial	-11741
Fasciola	-11742
Globulin	-11743
Glycogen	-11744
Habitual	-11745
Huoxiang	-11746
Invasive	-11747
Isazomib	-11748
Jaundice	-11749
Killipii	-11750
Kyphosis	-11751
Ligament	-11752
Lotensin	-11753
Marginal	-11754
Meniscus	-11755
Midbrain	-11756
Movement	-11757
Myotonic	-11758
Oliguria	-11759
Omazumab	-11760
Orchitis	-11761
Oxitinib	-11762
Phimosis	-11763
Pyriform	-11764
Quantita	-11765
Sagittal	-11766
Spondylo	-11767
Sulodite	-11768
Troponin	-11769
Unroofed	-11770
Vitreous	-11771
alkaline	-11772
anglioma	-11773
brachial	-11774
cystitis	-11775
demyelin	-11776
disodium	-11777
elastoma	-11778
enhanced	-11779
erinemia	-11780
iglottis	-11781
internal	-11782
invasive	-11783
masseter	-11784
opharynx	-11785
oresinin	-11786
osarcoma	-11787
ovaginal	-11788
phytosis	-11789
rillator	-11790
romosome	-11791
rophosph	-11792
tothecin	-11793
▁Arsenic	-11794
▁British	-11795
▁Corneal	-11796
▁Cranial	-11797
▁Epiglot	-11798
▁Erosion	-11799
▁Esophag	-11800
▁Fibroma	-11801
▁Fuzheng	-11802
▁Granule	-11803
▁Kechuan	-11804
▁Neuroma	-11805
▁Qingnao	-11806
▁Rapidly	-11807
▁Sigmoid	-11808
▁Sjogren	-11809
▁Stromal	-11810
▁Thymoma	-11811
▁Vaginal	-11812
▁Zhengqi	-11813
▁Zhufeng	-11814
▁anomaly	-11815
▁bacilli	-11816
▁bottles	-11817
▁bulging	-11818
▁codeine	-11819
▁flexure	-11820
▁foreign	-11821
▁gingiva	-11822
▁glenoid	-11823
▁mastoid	-11824
▁nodular	-11825
▁obesity	-11826
▁organic	-11827
▁pneumoc	-11828
▁pontine	-11829
▁pyloric	-11830
▁rectosi	-11831
▁removal	-11832
▁retinal	-11833
▁seizure	-11834
▁somatic	-11835
▁spinous	-11836
▁sternal	-11837
▁storage	-11838
▁tension	-11839
▁vessels	-11840
Achalasia	-11841
Amaurosis	-11842
Baifuning	-11843
Bupleurum	-11844
Carbachol	-11845
Carbamate	-11846
Chlamydia	-11847
Cigliptin	-11848
Difenidol	-11849
Eclampsia	-11850
Estradiol	-11851
Etoposide	-11852
Fushanmei	-11853
Gefitinib	-11854
Hamartoma	-11855
Heptidine	-11856
Hypomagne	-11857
Infrafalx	-11858
Kabalatin	-11859
Melanosis	-11860
Menstrual	-11861
Mingzheng	-11862
Occlusion	-11863
Pacemaker	-11864
Permanent	-11865
Pituitary	-11866
Poractant	-11867
Proptosis	-11868
Puerperal	-11869
Regofinil	-11870
Ruiyining	-11871
Salicylic	-11872
Silicotic	-11873
Sorafenib	-11874
Stiffness	-11875
Sulpiride	-11876
Zhenhuang	-11877
cingulate	-11878
dizziness	-11879
dospirone	-11880
erebellum	-11881
eversible	-11882
glipizide	-11883
jiangshan	-11884
leukocyte	-11885
opalatine	-11886
phenidate	-11887
thematous	-11888
varicella	-11889
verticula	-11890
▁Achilles	-11891
▁Acoustic	-11892
▁Adhesion	-11893
▁American	-11894
▁Blastoma	-11895
▁Bronchop	-11896
▁Cachexia	-11897
▁Candidal	-11898
▁Cephalic	-11899
▁Cranioph	-11900
▁Elevated	-11901
▁Fibroids	-11902
▁Guillain	-11903
▁Hydrogen	-11904
▁Hypnotic	-11905
▁Jaundice	-11906
▁Lethargy	-11907
▁Motility	-11908
▁Odontoma	-11909
▁Perianal	-11910
▁Personal	-11911
▁Pressure	-11912
▁Procaine	-11913
i	-11914
n	-11915
▁	-11916
o	-11917
e	-11918
t	-11919
r	-11920
c	-11921
a	-11922
d	-11923
u	-11924
l	-11925
s	-11926
p	-11927
m	-11928
j	-11929
h	-11930
I	-11931
M	-11932
v	-11933
0	-11934
f	-11935
g	-11936
y	-11937
b	-11938
S	-11939
1	-11940
C	-11941
5	-11942
P	-11943
A	-11944
*	-11945
(	-11946
)	-11947
H	-11948
N	-11949
z	-11950
2	-11951
D	-11952
T	-11953
%	-11954
x	-11955
/	-11956
.	-11957
B	-11958
O	-11959
[	-11960
]	-11961
R	-11962
F	-11963
E	-11964
G	-11965
9	-11966
L	-11967
,	-11968
k	-11969
4	-11970
w	-11971
:	-11972
;	-11973
-	-11974
|	-11975
V	-11976
6	-11977
3	-11978
K	-11979
Y	-11980
8	-11981
U	-11982
W	-11983
q	-11984
7	-11985
X	-11986
#	-11987
Z	-11988
J	-11989
ω	-11990
Q	-11991
'	-11992
α	-11993
+	-11994
<	-11995
